1F
25
F1
1B
EA
FB
ED
1E
32
E8
24
16
2E
27
37
E7
14
07
F3
16
C4
D6
E6
15
CD
F3
05
0A
0F
B5
17
E0
42
02
D0
17
11
44
10
F1
14
15
39
46
2E
CC
12
0E
25
03
C7
EE
E8
32
17
05
20
28
33
D2
08
17
41
EB
D3
02
4D
FB
C5
A3
2F
31
36
BC
B5
B7
A8
FB
13
36
BD
E4
2E
06
31
CE
25
08
15
22
FD
03
3B
38
D7
FB
2D
F2
EB
B7
BC
DF
F6
05
21
CA
A7
B9
D2
E7
20
D2
E0
C3
D3
14
12
E8
EA
CE
2B
14
1A
ED
C1
EC
00
DC
13
FC
0D
CA
81
F8
F1
E0
AD
BF
0C
06
28
05
48
FE
07
2E
5A
55
3E
E7
