FF
06
10
FB
1A
00
0C
F8
0F
FD
F4
1D
0A
E7
ED
FC
1D
03
E2
E8
FE
25
1E
CD
F9
09
0B
05
11
0F
0C
02
00
F5
FA
FB
1E
1C
E4
F7
0D
15
0D
EA
D9
F0
24
07
E8
03
AD
E3
04
14
0E
E5
F5
09
09
F2
EA
0E
26
F0
B8
0A
17
21
D4
F5
1F
24
0C
DD
D5
01
F3
14
12
F7
FB
EC
F7
CE
C9
EE
0A
FB
CA
E7
03
22
11
CB
FD
13
22
E4
C9
FA
18
FF
1E
21
21
FC
23
0F
20
1B
11
06
07
F7
16
E5
03
10
1A
FE
DC
EC
FB
E4
F8
F6
00
F8
EF
E8
E5
0B
FD
C2
D7
E4
DC
C0
D4
E0
E5
DD
81
A7
F4
E5
A4
AB
EE
31
EB
0E
F0
ED
0E
23
10
20
23
0F
28
38
1A
11
E1
F6
FC
EB
BB
C3
DB
D9
DC
E1
FD
0A
0B
00
0F
F7
1D
30
0E
07
F1
F5
F6
DB
C7
BA
09
D9
B1
B9
DC
0E
1C
11
E8
FE
F2
F9
01
1D
21
DC
E8
15
2D
55
FE
EA
EB
13
13
EB
D8
DC
D0
EC
E3
F5
12
FF
22
03
04
F7
F5
25
EE
F4
1D
23
37
F3
1C
1D
0B
CE
C2
D1
CD
9D
E5
D9
D2
CE
E2
E6
E6
F2
EC
08
03
E2
E4
D4
FA
EF
D4
D8
D2
F7
11
FE
02
3B
38
23
0F
03
13
1C
28
0E
FB
1A
07
2C
07
28
1C
1F
DF
1D
F8
E5
B0
AF
FA
39
36
18
05
14
13
24
26
13
10
1F
07
F6
F8
05
FD
E1
FE
F1
EC
F6
16
1C
21
1C
22
0D
F9
17
F6
E8
F2
01
08
05
F9
09
F1
F8
0C
FB
1C
1B
0E
13
11
04
01
0E
FF
10
EF
EA
FA
E2
F2
00
FD
FE
F8
DC
DE
CB
F4
C1
EC
DA
DC
FF
20
FA
1C
10
FC
2F
16
14
0C
DC
05
F5
F8
EF
12
F5
06
03
DD
EB
C1
DE
D3
08
FC
0F
13
18
26
F9
1E
28
1A
E5
D4
F9
EF
F2
DE
F9
0D
18
20
2B
12
1F
05
EB
DB
E2
D6
BC
B6
CF
ED
C8
BC
DB
0F
0B
03
1D
11
0F
20
FE
10
04
F3
07
EA
05
0A
14
24
3D
15
15
F1
E3
F6
D8
EA
F0
0E
E9
D9
FA
04
F6
EB
F1
17
15
07
D8
C6
16
03
EC
F9
D0
FD
1D
F0
E4
DE
F4
09
F2
F2
0A
EC
02
EA
DA
E0
15
F5
D3
CF
CB
FB
FD
EB
D3
04
1F
F9
F6
F1
F8
02
F8
0E
EF
25
0D
F0
FD
21
CB
2A
45
F3
00
D0
26
2F
05
FA
FB
1B
E9
01
1A
1A
16
E6
13
03
FA
F7
07
0C
2C
F1
1E
02
0D
B2
FE
08
0B
E9
EF
0E
2C
FE
E6
0D
1C
15
0D
FD
08
08
E8
FF
DD
20
0F
C0
D4
EB
1E
15
AA
EA
34
18
F0
C2
E7
05
06
FF
F9
E0
FB
F6
D2
E0
E7
05
D7
A7
E6
E2
03
E7
EB
04
F3
15
F9
12
0D
CE
17
15
F8
DA
07
11
1D
E2
01
2F
F3
05
04
E9
EF
C3
FC
EA
C8
B5
F5
F2
C2
CC
01
06
02
D7
D5
F8
F6
F7
FD
FC
09
09
ED
F2
E5
A5
BE
FE
EC
C6
08
FE
0B
EB
D8
07
EA
FF
E7
E1
1C
F5
16
DC
11
14
F9
09
0D
30
D6
CF
02
0E
F0
DF
04
1E
2E
DF
18
28
3A
11
0E
09
1A
2D
EE
11
FB
19
F7
F7
0C
BD
EC
D5
FF
C6
DC
1B
07
D1
CB
18
1B
21
D0
14
2A
0C
10
DF
18
01
E6
05
0C
0D
0C
03
EB
2D
F6
DD
FC
18
1D
00
D8
DE
FA
F4
F7
E5
EF
E6
F5
FD
E4
07
FF
02
DC
D9
21
0C
E8
C5
15
2E
FE
D7
EE
14
F0
E2
E8
FF
F8
D2
EF
00
F8
CE
C1
ED
0C
04
E5
F4
15
13
18
11
CE
F4
03
0D
11
CA
F7
D8
05
2D
FD
ED
FF
F0
FF
21
F8
FB
FC
D2
E1
F2
07
1F
FE
B5
E9
D9
10
12
04
E3
D4
EC
23
05
F9
01
F8
FB
F2
E7
EA
23
1C
E8
F9
D3
F8
21
16
06
EE
CD
FB
16
03
0C
F0
0A
01
EC
1C
1E
24
11
0D
FB
07
09
2E
FB
F2
EE
DC
00
12
10
F2
C8
EB
F9
1B
2C
C8
F0
FA
FF
23
0C
01
03
EF
01
15
05
F1
D9
FC
30
2B
DD
01
08
21
08
E8
E1
D3
EE
03
02
E8
E2
CF
F3
F5
EC
F3
19
E8
16
EB
05
1C
FC
12
0D
F9
FF
29
06
25
26
DB
1A
0A
F8
19
21
F5
E3
D6
D2
EC
F6
29
2E
27
EC
07
08
28
24
22
20
EF
F3
0F
03
10
E5
E4
DB
E9
E2
FB
EC
D8
FA
0E
38
31
10
FB
15
07
F2
1A
27
0E
D8
F0
F9
02
E6
09
D7
F2
CB
FE
FF
0E
ED
ED
F3
CB
D6
04
F1
1B
F9
05
0E
0F
14
F5
F7
E7
21
F1
1D
2D
0D
FC
CC
0A
F4
E8
24
D6
F3
EE
D4
DB
02
FE
E1
D9
08
0D
E3
F3
1B
0E
EA
14
15
1B
DC
01
05
07
00
18
22
F7
0E
18
E3
12
E3
DE
CC
BE
DD
FF
F8
F9
0A
08
11
18
1A
F6
F8
31
08
11
13
E2
0B
F9
1A
20
11
D9
D7
B4
E0
09
E5
F4
C4
B9
D4
F0
D7
E6
DF
E3
F4
F7
11
07
09
EE
0A
0B
EF
15
19
08
14
FA
E7
12
15
EA
F2
DC
0A
11
03
F1
0F
07
05
06
13
F5
F8
00
01
0F
F0
0B
0D
ED
FB
F9
E8
FC
ED
F1
F9
D8
FD
02
F8
12
F7
0E
F8
DA
0F
17
DB
EE
21
14
E4
06
14
E0
D7
F3
00
15
CA
0B
F6
EB
F5
23
FB
08
12
F3
E2
00
15
D9
0E
1F
1A
02
27
1C
19
DC
E5
F3
FB
F1
00
FE
DD
FF
0F
23
0B
EA
F8
F8
04
19
FF
D5
F7
EB
F0
ED
D7
FA
FF
FC
FB
F4
E6
D8
1E
1C
E4
02
CF
00
08
FC
F0
23
ED
F2
37
12
F0
F6
22
1C
C1
E2
C2
DC
F2
2A
29
D3
E8
05
20
EB
C3
FB
01
09
EB
DE
CC
00
17
F2
07
03
1C
24
16
2E
14
FA
12
20
0A
FF
18
1C
1C
9F
EC
DC
20
FA
E8
06
F0
05
18
27
3A
05
23
1F
0D
18
FA
F5
0D
D5
E9
0E
05
08
AD
D1
D3
07
11
FA
F0
BE
C6
FC
ED
FE
E0
F6
0E
15
F5
DD
1D
15
FD
E2
EB
10
30
00
FE
FF
E1
CC
F0
EF
D1
E9
C5
F6
EE
E5
EA
F2
16
F9
D5
05
0A
F1
09
22
11
EF
14
1A
10
ED
F3
28
15
05
02
FB
14
FF
2B
23
02
EE
F2
14
F4
E9
FD
F0
DE
DC
EC
0F
BC
C3
DF
DA
40
38
18
0B
FD
1B
39
20
E6
C5
E4
FA
FD
FD
CE
EF
F3
DA
E2
B8
FF
04
F0
EC
DF
24
21
12
EF
F9
2A
22
1F
08
15
1B
2D
22
06
EE
FF
04
DE
C7
F9
1F
00
FF
E4
D6
18
05
F0
FC
F9
3C
31
29
18
0A
1E
14
E3
CF
D6
F8
F0
CB
E8
0B
EC
01
F7
FE
08
07
20
E6
00
F3
E4
F5
00
0C
10
E8
F8
F4
F4
FA
E6
07
F0
DE
F1
13
F8
EC
2B
09
09
DE
CE
01
EF
03
B4
F1
21
1E
F2
CB
E9
16
F7
F2
B8
D0
D4
1D
EA
04
0F
0E
0D
0F
F5
E0
F7
E7
F7
EF
F6
BA
CA
FF
01
FD
0A
01
1E
F8
1A
10
06
D8
BF
CE
E3
DC
BE
CC
2B
33
34
D3
F9
31
33
18
88
88
9A
A2
B8
BC
04
2F
4D
25
12
02
14
F7
FC
DF
0F
10
E9
F9
BE
16
17
F6
DB
F0
F8
1D
0D
F7
F6
EF
1B
F8
E6
E4
15
1C
00
00
A8
10
02
F8
D7
C6
14
2C
E8
D9
E8
16
11
F0
DB
F5
2F
0D
18
0D
C9
DE
1A
21
0F
C7
E8
31
35
E9
F4
0E
38
12
EC
12
02
0A
FE
17
F8
F1
12
FC
FA
11
E9
E7
FC
FD
EC
F3
0B
27
FC
04
1D
2D
0B
F5
02
3A
22
BC
0C
0E
17
21
D6
F5
18
F1
06
13
EE
0A
CE
D7
ED
F6
29
E8
C2
FE
11
03
BC
B7
14
0E
F5
D1
D9
EE
0A
04
D8
06
0C
00
F4
F7
E2
D0
D4
FB
E7
DE
AF
EA
EF
DF
AC
C4
F1
03
0A
EA
29
2C
04
01
FB
E5
F6
ED
D8
02
FC
16
F0
F0
F2
11
EC
0F
0B
0E
16
FE
21
F7
FE
12
03
F5
D6
E4
08
F0
07
04
02
F2
F1
10
FC
EC
EA
01
16
16
18
FA
11
19
2A
1E
08
0A
E5
B3
BC
21
15
92
EA
40
0D
15
06
3D
2C
24
07
1E
18
F1
F0
04
D5
EF
FF
09
DF
1E
E7
FC
0A
F1
C9
FF
33
0E
09
30
FB
FD
FB
D8
16
DC
F8
EF
E0
DA
C9
F9
EF
E4
F9
10
E9
EC
EB
F1
F8
C0
C7
F4
F6
DF
DB
CF
F6
DF
F1
ED
0A
04
F5
F6
14
15
EA
C5
D9
18
F5
00
19
10
43
02
07
09
0D
EE
F3
1A
DF
C1
19
DC
F0
F8
EA
0F
F5
0A
08
24
2C
18
08
0C
0F
12
FE
EB
E0
16
F8
E2
F1
EA
F6
EE
D7
F3
DD
FA
02
F8
07
19
34
2B
15
F4
DE
03
FE
E6
E4
E8
18
E6
BC
DB
DB
15
F1
E0
F9
E5
1A
FF
ED
FA
F7
05
17
04
FC
EA
ED
00
FA
C0
03
E4
FD
DF
F1
EB
03
FE
01
19
B4
F2
2F
11
2D
12
04
0A
F0
D2
EA
F3
08
F3
D6
D0
F0
DF
CE
FA
E7
19
EB
D7
0E
ED
10
D5
F6
17
02
F9
EB
DE
07
03
0D
F7
13
0E
26
06
1F
11
02
1D
F8
1C
11
FE
14
12
11
0D
EE
0C
11
FC
F7
17
CA
C7
D1
B3
D5
FF
06
F9
CE
F1
0A
EB
DA
D6
27
EF
FC
FF
0D
22
EE
FB
E2
E6
F9
04
F3
02
08
FE
22
1F
0C
00
00
FA
2F
31
1F
FC
E5
CE
14
1C
15
00
EB
09
ED
F9
22
F5
01
EC
05
FC
29
29
11
08
E1
F6
3A
24
09
B9
B9
E0
28
25
0C
13
F5
F4
EB
DC
23
1E
19
FF
C7
DA
15
1B
16
E8
A0
AE
04
0A
06
F4
D5
EC
03
03
FF
F3
04
FE
D3
FD
FC
EF
E9
ED
E1
E6
EF
DD
1A
FC
CC
D4
01
FE
0C
00
C6
D9
04
0E
F6
F2
09
0A
EA
E2
D6
06
DB
C9
ED
01
11
0A
F5
F8
F9
07
1D
31
1A
EE
16
F3
FE
FD
25
0B
0C
10
FA
E7
15
EF
05
01
22
0D
CD
BA
D2
0C
18
31
1B
DE
D2
0E
F1
DB
F5
E8
DC
F3
07
FB
0A
F9
05
FB
2E
33
1A
0A
07
11
1F
F5
E5
E0
E2
B5
C8
D1
CD
FD
02
EB
15
FA
02
21
24
04
F1
0F
21
20
FD
CF
B3
B3
C4
02
F4
DE
E2
DA
D2
CF
FC
14
07
D4
05
03
00
F1
EE
F8
ED
DA
14
FB
16
F9
F6
05
EE
F4
D9
E4
02
CD
B6
06
1E
EF
DE
F0
0E
06
0D
0C
FE
0C
28
2A
03
FF
01
FF
E5
02
ED
FD
CC
FE
13
10
FA
FC
07
EA
F8
EB
0C
04
F6
08
D5
EB
FE
00
00
0D
F7
FF
F2
14
18
15
06
00
E5
ED
F4
04
26
03
1D
04
20
F6
D6
BB
E1
27
24
07
03
FC
F3
04
18
2E
30
29
10
DF
CA
E5
DF
01
1F
EA
D6
06
D3
22
FB
03
EC
D8
14
1A
23
25
F4
00
12
FF
03
FF
F8
FF
D7
03
F7
1D
18
DC
03
E8
22
F9
10
FF
E2
2A
1B
16
12
FD
1B
04
E6
E9
EE
34
16
D9
0F
B9
1F
2B
E9
EE
E2
EA
18
CC
EB
C3
F1
03
E3
DD
E1
0C
0A
FC
F6
A8
F0
FD
F2
ED
DA
06
0D
DB
FA
24
0D
E4
E8
FD
19
1E
E6
EB
1A
00
15
D9
BB
DA
E4
01
25
0A
EE
0E
CF
2A
15
E4
F7
D8
1F
F4
04
E6
BB
DA
E7
05
F8
E3
F7
FB
F5
D9
20
15
0A
03
D5
0F
08
EC
12
F7
CF
04
28
18
F0
D3
C4
28
0D
F1
D4
AD
06
E4
