FD
02
F4
10
FF
12
07
03
F4
F2
07
FB
FA
0D
ED
15
08
F6
0C
F5
FD
08
FA
F1
FD
12
E9
02
08
1A
09
FA
F9
FF
05
0B
00
18
02
FA
FF
0D
09
17
FA
F1
F8
F8
F1
06
08
1F
05
0E
F8
FD
FC
12
0A
07
10
02
FB
03
FD
FD
FD
0D
08
FF
F0
00
10
FC
0C
10
15
F6
0B
03
F6
F4
04
16
06
04
09
02
13
0F
12
06
F0
F9
FF
04
0C
F0
FA
F8
09
F0
04
0D
00
FC
FD
FC
F2
0A
06
FE
FD
FB
FA
05
FF
F7
F7
00
