0A
ED
1C
02
DC
FA
F6
14
03
CB
F2
C4
EA
F1
F0
F1
0A
FE
EE
09
F7
21
05
F7
19
DE
27
28
0C
07
0C
05
04
1F
2E
30
34
27
16
12
17
1A
03
D9
D5
0A
0F
F7
FC
EE
0D
0E
F9
13
FB
0C
11
0B
1A
09
E6
F4
F7
EB
DD
E9
FF
06
05
F7
2B
15
FE
1A
0A
ED
09
F7
E5
05
0F
FA
09
C7
E9
F9
04
FE
B9
AD
DA
01
0E
ED
EC
D9
FD
FE
13
20
FC
E7
E3
03
06
EC
12
F5
18
F8
E0
03
FD
1B
FB
E1
D0
FB
08
22
24
1C
41
0B
11
FA
01
F2
F7
00
C3
FD
0C
E6
DB
DD
00
09
14
F3
03
09
2E
1D
17
1C
FE
F7
06
25
16
FE
FE
EE
F2
F5
E6
F0
11
0F
F8
0C
FE
03
0C
31
0C
E9
0C
EE
28
1D
06
FA
F4
0F
14
0E
13
1B
13
04
FC
F4
1A
07
1A
F7
FD
F4
F7
18
F6
E7
E6
0A
FA
FE
04
FC
09
F8
05
E8
F2
0C
00
D8
EA
18
D8
CD
BD
F0
FA
EA
FC
23
0F
22
FC
E6
2F
11
46
10
2C
38
1E
13
06
04
F7
0D
0B
2F
31
FB
F9
CF
30
09
E2
EF
FC
24
F0
F8
E6
E2
29
FA
F7
F4
E9
19
0B
02
E3
B6
C0
F3
09
DD
E1
A1
D5
E2
02
FE
DF
FD
FC
03
23
0E
10
0D
F0
F6
05
FC
0C
05
05
D9
E8
FE
EA
E5
DE
E3
EA
E0
F0
EE
21
11
19
1F
01
02
FA
1C
27
04
08
15
17
0A
EA
02
FC
22
29
E5
20
1A
03
E4
F7
1B
0A
FE
EE
14
0C
F1
DD
ED
F9
0E
FB
04
02
E7
0C
21
08
17
EE
E7
ED
03
01
F2
0C
FF
F3
F8
04
02
FC
FD
08
0F
F6
FA
13
3C
33
27
06
F7
16
25
18
0F
F6
E9
FD
0E
07
F7
FA
FE
10
31
11
DB
D5
EF
05
02
B6
C7
FA
12
03
ED
0D
F8
FD
07
FE
D5
03
EE
FD
EE
F5
F9
F4
F9
F8
FA
0C
01
01
05
FC
04
F4
FE
02
F1
FC
EF
EB
FB
FD
03
01
F2
F2
1A
F0
01
0B
07
00
F0
F7
F1
F5
06
F9
F4
F1
02
FA
0C
FF
EC
FF
0E
0C
07
F2
F3
0D
F5
02
F8
FC
FC
F0
F5
06
FD
03
F6
0B
FB
F7
03
FB
F8
FE
00
FB
08
F2
0B
0F
FF
F5
EB
05
07
0A
FE
FC
0C
02
F4
EF
02
06
0C
F5
00
F6
FA
0B
F3
05
FD
F6
0A
F7
FD
F9
F1
F9
02
FA
F5
FD
FD
F9
F2
F7
FA
02
0D
FA
01
04
F6
F7
03
08
FC
F1
FF
E5
FC
F8
00
EB
F8
FC
02
FB
0B
F9
EB
FA
03
FE
04
F0
F7
EA
0E
F8
F0
F9
FD
03
FB
04
F7
FA
FA
FF
03
F7
05
08
F5
FC
F7
04
F9
03
FD
F4
F5
F2
F7
03
FF
0A
F0
01
F4
03
06
F2
09
FA
0C
FC
05
0A
F8
FA
05
F0
06
F5
0C
F3
FB
0B
F7
0A
0C
09
EA
F7
F3
FC
F0
FE
F6
F5
EC
05
F6
07
03
04
01
F6
FC
F4
09
F6
02
F9
06
08
F4
09
00
F5
05
06
0A
EF
0C
07
09
03
F6
07
0A
F8
FB
0A
07
07
0C
FA
FB
F4
05
02
F0
FC
F0
F2
09
F6
00
F5
FB
FA
08
F5
05
06
08
ED
F2
F2
FB
FD
00
05
04
F4
F4
07
FC
FC
EF
FA
00
F2
07
03
F3
F5
F6
02
F7
0C
EC
F2
F7
05
06
F6
08
F5
07
EF
FF
F3
F3
F1
01
F8
0B
F3
F7
FC
09
F3
03
03
00
04
FA
F9
F8
FD
04
F4
03
F1
06
FA
F1
F6
F6
FF
F4
F9
FB
F3
FC
FA
02
08
F4
09
FC
F5
F7
04
06
FD
F5
06
01
F0
F9
FD
F8
F6
EE
07
E8
05
F3
F5
F7
FD
02
05
F2
F8
07
FA
02
00
F7
F2
06
F8
F6
F5
F6
0B
01
07
FE
F3
04
FC
F8
07
F4
FD
F1
04
04
EC
04
01
F5
0D
FF
02
F8
F0
EF
04
07
EF
05
00
FD
09
F0
05
04
F5
EF
F6
05
EB
EC
F7
FD
02
00
FA
02
F9
FD
FD
08
F9
F0
05
F3
0C
01
FC
FA
FF
F3
EB
04
F1
EA
F0
F7
FA
EF
F6
F6
05
04
06
FE
0B
EC
FF
F6
0A
EB
FD
EB
07
F9
04
EC
00
EC
F6
FC
F5
F3
EA
F3
FB
0D
09
FE
F0
EB
05
EE
F5
F3
ED
F9
F2
00
F8
F9
F3
F9
FD
03
06
EA
F2
F4
F9
FE
0C
04
ED
F7
01
FC
F6
F8
EA
F0
0A
F2
00
EB
0B
07
02
FC
00
F7
F7
EE
04
F9
FE
E9
FC
F9
ED
FB
EA
F5
EA
00
EA
F9
FD
EA
04
05
F5
FF
FC
0A
04
EC
F2
EB
F8
F8
F2
08
F4
F2
F0
EF
05
00
F4
FA
F3
F3
FE
00
09
F9
F6
F5
0D
F1
02
FD
05
01
FC
F2
00
F4
F6
FA
06
FA
EE
EA
E9
F9
F2
F7
F0
EE
01
00
01
06
ED
EF
EC
08
FF
04
ED
F6
0D
EC
EE
FC
EC
F2
FE
0A
F4
F1
FF
0E
EB
FD
F3
EF
03
05
04
F3
FB
04
FD
FA
F8
0C
EB
F2
09
F5
08
F8
FC
F7
04
08
00
FE
F2
EE
F9
05
FB
01
F8
F8
F0
FE
E9
FA
03
03
09
FD
F2
F4
F0
00
01
EB
02
F1
06
F1
02
01
00
04
FB
03
EA
F5
F5
08
F8
05
08
06
00
F7
05
FA
05
F8
FD
F1
05
F4
02
F4
EA
F5
EE
F9
FE
F1
01
00
F1
F2
02
EF
F9
F8
01
F0
F6
F9
F8
F1
FC
07
01
FE
0E
0D
FC
F3
FB
FE
F6
F1
F8
0B
EB
F1
F7
F1
EE
02
04
EE
F8
F2
0D
ED
F8
F1
00
08
F0
FB
0A
FE
F9
F7
F8
00
07
F0
06
FF
FE
05
FA
08
F2
0D
0D
F3
F2
FA
F5
02
05
FC
0B
FF
FA
F2
FD
EB
F9
00
F6
03
03
08
08
EA
F3
FB
F3
03
ED
F3
04
0A
FA
EF
00
FE
0A
F9
08
F1
04
F4
F5
09
FB
01
06
19
1D
1B
11
FC
F3
0A
10
F6
E3
F5
FB
00
D2
DF
12
09
EE
DC
FF
F6
13
3D
FE
FB
00
DD
08
DB
0C
FE
E0
F8
FB
19
2A
02
D9
F1
F5
15
03
F5
01
14
07
F5
0D
F9
EE
EF
D0
07
0C
04
05
09
EF
FF
26
0D
10
FA
05
09
F9
06
F3
03
12
17
F1
07
0B
F2
0B
EF
0C
02
FC
07
FA
E9
00
10
FA
F9
F3
16
03
F7
F7
04
F9
EC
E2
F7
EA
F6
E3
E2
0D
17
08
D9
DB
FA
0E
2B
04
EC
10
0E
1C
E3
0D
0F
FA
0D
F1
05
ED
ED
F2
0B
0C
03
D6
DA
0D
0F
09
E4
F4
19
19
0B
FD
00
26
FC
18
FE
FC
10
F8
FD
1E
0B
17
FB
F8
08
01
FE
08
02
E6
F8
F3
1A
20
ED
02
F9
FD
12
05
01
0F
FC
E2
3C
0C
EB
FF
EA
0A
16
21
19
FC
EF
00
FF
03
E9
D8
FB
0C
13
F8
EE
F5
0C
FA
14
FB
02
FA
12
00
08
03
00
16
22
06
04
F0
0E
3F
13
14
E1
E8
FD
03
F3
D4
F5
F8
20
06
DD
DF
ED
20
F2
D6
EF
F0
02
F2
F4
F4
F6
DC
DC
09
FA
FC
DF
09
10
0F
0E
E8
EE
F0
08
06
0B
F5
0E
09
06
00
F8
F4
FB
FC
E7
F1
03
07
04
D2
E8
08
F6
FD
12
ED
FB
F6
F0
F4
FC
EF
11
FA
F2
FE
18
37
17
01
05
14
09
F5
EB
FA
07
0A
13
F7
FA
D8
EC
1A
04
07
F1
BD
D5
26
F5
E6
CE
FE
F0
DD
F4
D9
0A
F7
00
05
0D
04
F8
01
0D
01
0F
DC
F5
EC
EE
E6
E9
01
FA
0C
1E
07
15
FF
06
FF
15
1A
08
0E
EA
20
2D
FF
FA
F5
05
EB
0B
FA
D7
EB
17
14
EB
E8
E6
00
F2
F8
DD
09
0E
EF
F3
12
14
EE
E0
0B
04
E3
B5
F9
02
F8
F1
EB
F5
F6
00
18
E9
05
F9
15
FC
14
0B
FE
F5
BE
D4
2A
1C
16
01
0E
0B
F6
0F
12
2C
CA
EF
0B
0A
F8
F7
07
18
FF
E8
02
22
04
0E
E8
DD
D5
F8
1A
F1
FF
14
08
22
F2
ED
0B
15
1F
EA
00
17
24
D2
E8
F8
EF
F1
14
F9
EE
FB
15
17
0F
01
1C
0C
22
F5
05
01
FB
FA
FF
07
16
19
05
0D
0F
F0
FE
E8
EB
E7
F2
0C
EC
F1
03
04
3C
E7
04
14
1F
03
EE
18
E4
0B
FD
F7
F8
13
24
29
F3
DE
FC
2A
3A
E9
E9
02
38
F6
EA
FA
04
ED
D9
FB
F3
FF
EA
04
00
FB
22
FD
04
19
F5
F8
03
13
1D
19
EB
09
F7
E6
0B
F8
0B
02
00
24
02
04
F3
10
F8
F0
F6
E4
1B
10
FF
0F
F2
23
21
1D
21
EA
28
F6
F0
00
FA
F6
FD
0A
24
31
13
FE
FB
01
DC
0C
D9
EA
E3
01
17
1A
1C
05
13
27
04
E5
0A
F7
03
F1
F2
FE
12
F3
FE
F8
F8
F8
FE
1F
09
13
13
14
0F
07
16
D9
E7
F7
07
D9
06
E0
FF
38
04
F3
10
F7
06
04
E3
2E
2C
1A
D2
DF
43
23
02
F4
F3
4A
E5
0D
0C
01
0F
16
12
EE
FC
05
F9
E8
F2
F2
F3
DE
1A
2B
19
D5
F5
15
13
27
F5
17
D6
01
F2
F8
EC
03
E7
1B
E3
FB
16
1A
2C
17
F2
F0
EA
11
ED
E7
EF
EE
1B
14
1C
10
11
04
FB
EC
EE
0D
F7
FF
18
FF
11
F4
E7
C9
EF
17
E7
E3
F3
03
13
B0
16
0E
F4
F1
F6
FE
E7
14
EA
04
F9
E5
F1
FD
05
18
1A
0F
FB
F4
15
F2
F5
0D
EE
EC
FB
14
17
21
E8
FE
F7
FB
F8
00
04
01
DD
D1
12
0C
FC
D8
ED
23
02
29
12
33
08
09
2D
01
F9
F7
EB
0E
09
FC
F4
FB
0A
03
09
06
0E
2A
0D
F6
29
09
1D
10
F4
E1
EB
F1
F5
FC
E5
FF
1F
F1
0A
EF
0D
EB
0C
FA
0D
CC
D1
D0
E9
F2
F6
0A
07
0D
06
00
10
03
FB
F9
EA
FD
04
05
F9
0B
E7
D7
07
1C
0C
E0
E0
E3
F2
0E
E5
D2
BA
DF
01
0E
0C
E5
E7
22
21
FC
F0
05
13
03
05
FE
13
1D
00
05
FB
06
FE
E8
02
FC
F9
F1
E9
06
09
01
F5
07
FE
02
09
FF
07
12
01
0F
00
04
F1
E5
E8
00
F8
FD
EC
06
FB
01
13
12
01
09
00
0A
09
21
FC
E3
EA
19
18
07
E7
DD
05
18
FE
EC
CB
17
0D
02
E1
0B
18
21
0B
1A
18
07
0F
01
F3
14
FF
FB
0A
0D
0B
08
FE
05
26
FB
10
27
FD
FC
05
0F
EE
0C
DC
F2
2C
36
00
28
12
18
E9
10
14
06
03
FA
14
0F
E9
F3
F2
14
F9
DF
EB
EF
01
E9
F5
E2
09
F9
03
F8
F4
FE
FC
16
F7
04
03
06
11
FD
F9
08
02
0F
F6
05
FA
0C
0E
FC
F5
0A
0E
0C
ED
F0
F6
06
0F
FE
FD
F5
F4
13
15
09
0C
EE
F5
F6
EA
15
00
DD
15
DC
19
13
EC
FF
29
EC
CD
E8
F8
F8
E6
F1
05
04
FE
EA
F0
0E
F5
17
DB
FE
06
EC
03
FD
0A
17
ED
03
E4
DE
CB
C7
CC
EE
FB
E2
04
14
F3
FF
00
0F
1F
30
FB
E9
14
F9
23
F6
EB
EF
F8
F8
F8
00
00
0E
01
07
FE
00
DB
00
F5
03
F3
09
08
0B
09
10
1A
00
ED
10
17
22
11
FD
D9
B4
EC
1E
13
EA
CF
E4
0E
F1
08
EA
F7
F4
F6
F7
09
13
F2
0F
10
EF
07
F5
06
1D
0F
17
FB
13
25
1C
11
FC
05
E2
03
19
1A
06
F9
E7
01
0E
0E
FB
0B
05
FA
19
FC
E7
FD
02
19
DC
E8
CD
E4
0D
CC
EB
F6
04
FB
E7
FF
23
1A
0A
FE
03
2D
F8
D9
DB
04
F4
EC
0E
E2
11
26
FC
0E
F3
0D
0B
14
12
0F
E6
09
2B
0C
07
F0
08
1B
EA
C1
EF
F6
EB
E6
00
FA
0C
E9
D3
DF
16
1D
D4
FA
F0
F1
0F
F1
FC
10
11
F8
D7
F6
02
0B
F1
F0
F2
FE
F4
FA
E5
EB
0D
13
E3
E2
1C
12
13
EF
E7
F1
05
18
EC
F2
11
0F
F6
00
0F
12
03
FF
15
DD
F0
F9
12
00
F6
E2
E8
F7
05
F1
0D
0C
1F
04
1B
25
F1
F5
07
20
FD
DD
F9
CD
17
FF
FE
DD
E8
F7
19
F8
F5
07
F8
0D
F4
01
F7
09
F9
E4
EF
F5
20
0A
FA
E0
F9
F1
F5
02
EC
FA
E8
F4
EF
F8
0E
FC
FA
E4
23
0C
F9
11
F8
FD
F9
DA
FC
1B
09
03
0F
F4
00
0E
00
25
1A
20
0D
17
48
15
1B
04
F3
F1
FF
04
F5
F5
FF
F1
0A
0F
FE
D8
FB
F9
F3
02
04
19
0B
E7
C6
00
02
00
F5
DC
1E
1A
01
07
EF
FD
0F
01
12
FC
F4
09
16
FE
ED
F2
F7
09
18
ED
F2
FC
FB
0E
07
01
DE
08
0A
0E
FF
04
FE
10
21
FE
E5
D4
BA
D0
FA
F7
F6
ED
ED
F9
11
06
FF
EC
01
FA
14
F6
03
FF
FF
FA
02
F8
E8
09
F2
FC
F1
2A
FA
04
00
FE
FE
F5
FE
FB
F0
1A
F0
D9
EA
F5
13
0C
E0
E5
F5
0C
07
03
03
07
F6
F5
F6
0B
FE
DC
E3
E9
EE
1E
07
02
0B
08
03
16
05
0E
13
F7
04
EA
FD
15
E9
EA
EC
E8
00
EC
E7
F0
E9
06
01
06
F3
05
E9
0D
F9
0D
02
CD
EA
00
F5
E4
FC
F7
F2
E2
0A
F4
08
06
F3
EC
FE
FB
02
EA
05
04
0A
07
07
0C
1C
1D
20
16
FD
05
08
01
0C
11
E0
D6
F5
FA
0F
08
CA
F3
06
05
12
03
EB
FD
FE
0A
E9
FA
FE
05
EF
F0
0A
13
07
F5
F4
E0
F4
F6
01
0B
F6
12
0D
F5
E4
DE
EB
F2
F3
05
0C
05
FC
F9
04
22
FC
13
0D
0D
13
08
00
11
F6
1E
1F
F8
FC
F8
06
DD
CB
16
0A
CD
BA
0C
10
F7
13
0D
18
09
06
F8
F1
10
FD
F5
B4
C1
C5
D3
EE
D0
D5
D5
D3
FC
C4
E6
14
30
15
16
05
21
06
FD
F1
ED
01
07
FA
0D
FA
DF
F4
06
E9
E2
ED
08
19
17
07
F6
11
15
30
F9
E0
EE
00
07
DE
01
0F
03
FD
0D
16
0F
30
09
19
0B
17
1A
07
11
EC
FC
EE
11
09
19
E2
EF
08
03
07
F3
23
06
15
23
2D
1A
05
FE
04
15
0A
06
CB
E3
EE
E2
10
ED
E8
D2
02
FE
F4
E8
05
0F
0E
17
F0
F7
F8
06
10
08
F6
03
23
24
FD
F4
0B
E6
20
0E
06
07
FA
0E
0E
00
F7
D4
DC
F4
E3
E5
C9
D8
E6
DF
E5
05
1B
30
FE
F3
0F
19
09
F6
0A
F2
18
05
0A
07
F3
0F
F4
FC
F4
FE
00
FB
FC
F1
FB
08
FF
29
15
32
F5
FA
FE
F3
13
F6
F9
16
F5
F9
02
FC
0D
18
F7
E5
F2
DD
F5
05
0B
05
EC
C5
08
08
F7
EB
D4
09
13
02
FE
F1
EA
D9
F5
0B
EE
C3
D5
EA
FA
0D
F0
1C
24
13
0C
11
0D
F1
0E
EF
1C
25
08
FA
EC
F4
13
0E
11
27
10
09
05
15
20
F0
E3
F4
13
F9
11
02
1D
F0
F1
FE
07
0A
06
1F
FD
F8
F5
E8
00
14
1F
06
04
EF
0B
11
E6
F4
FD
23
09
F4
F2
00
0E
13
F8
F2
02
17
1A
FD
CD
DF
04
B0
F7
CF
C6
F8
F9
E1
FD
F4
27
25
07
23
0D
0F
D8
E5
EE
FB
FC
FA
F2
EA
08
1C
23
F6
EA
F1
27
09
05
07
12
13
00
0A
E3
ED
05
09
13
0A
0B
DF
EE
D3
C8
07
BA
E1
C6
EE
06
21
2E
F5
10
F9
19
E7
CF
04
06
13
0D
1F
17
04
E1
ED
0B
01
07
F8
22
FA
0D
0A
39
32
F2
19
F6
F1
0C
EF
0F
ED
19
11
02
0A
FC
FC
0C
0A
F2
F9
07
08
F9
E4
ED
FF
FA
F7
E9
FF
F8
0E
EA
EA
03
EB
FB
F6
ED
05
FF
0E
05
0C
12
0A
F6
F6
EE
01
01
08
0D
16
F4
EC
F7
09
F6
0C
FD
09
0D
0D
13
FF
EF
FB
09
F6
F2
F2
F4
01
EA
03
03
F8
FB
F3
E9
00
FE
FF
FA
F3
02
F2
FE
FF
F5
0F
ED
04
01
0B
04
E8
F9
EC
F6
F9
FE
F1
03
F6
F8
EB
EA
05
07
F8
F2
04
17
03
F3
F7
07
FD
00
FF
F5
0E
F5
01
0C
0C
0E
FE
EE
F6
07
F1
01
F6
F5
F1
ED
F6
00
00
05
FE
03
FC
FC
05
EE
04
04
07
F3
01
FC
FD
07
F9
F3
FE
0E
00
F8
06
02
F6
F7
01
EF
FC
EB
F4
F4
F5
05
ED
09
09
F7
00
FC
F0
0A
F5
F6
FA
00
F4
F4
EE
F3
F7
EF
FB
F6
04
FD
02
F4
E7
00
F5
02
EC
0C
F1
E9
F5
F1
F8
01
02
FF
FA
FF
EF
00
EA
E3
01
F4
FD
EB
0A
F0
0A
04
01
12
FF
E6
FE
EF
04
EE
F0
F3
F0
FA
F3
E7
E3
EB
FC
01
FC
F4
F0
ED
00
F8
FC
00
EB
EC
08
06
F4
EF
F1
FC
F8
06
F9
E8
0A
F6
FA
EC
F3
FE
EC
F1
F8
F5
00
02
FA
E2
08
FA
FF
ED
E9
0A
14
F6
FA
F4
FD
03
FE
F6
F8
FB
09
F3
F0
07
08
01
FE
FE
0D
11
EC
E6
EE
0F
14
F8
F1
EA
02
14
F8
EF
11
17
FE
EA
FD
F6
07
FD
F4
EE
EC
FF
F2
F3
05
01
F6
F2
ED
FD
FF
EF
09
06
F6
E0
F9
F8
01
F8
F7
F6
08
FE
EE
F8
04
0E
F7
F5
02
F0
FD
01
F3
F7
F1
FA
FD
ED
FD
F7
02
F8
E6
0C
03
F1
0C
F1
FB
0F
F6
F8
F1
01
11
EF
EE
FA
F1
06
08
09
F4
FB
FA
F7
09
11
ED
FE
F8
0F
04
FD
F1
F7
F3
09
06
F8
F5
F6
F3
F9
E9
07
EF
0A
50
12
11
12
4A
2C
03
0C
14
2E
FA
09
1C
F4
03
02
F7
08
EB
00
FC
0A
EB
F0
14
09
FB
03
47
1A
EF
F7
ED
2A
02
F2
F1
07
1A
EF
EC
EA
10
E4
E9
F9
0C
26
12
02
0A
12
F5
16
0C
12
F6
FA
E6
F7
F4
F1
FD
E8
EB
E9
F5
1A
17
11
0B
05
E9
F0
EF
DE
F7
04
EA
D7
07
0C
EB
E4
F7
04
04
EB
EA
FC
0A
F3
12
F2
EE
14
F4
0D
EF
F4
18
18
00
01
F6
1D
FC
FB
02
2A
13
22
08
F1
FA
FA
1D
F7
00
01
21
18
F1
06
F6
FF
F5
0E
F0
F1
F9
F4
F8
F0
BB
F2
F3
1C
23
FB
06
EB
E9
0F
19
1B
E8
DD
11
0F
F2
01
0D
25
18
F7
1D
F7
13
D7
C0
00
09
FD
E8
CE
FA
FD
1C
06
11
16
F5
10
ED
F2
FD
F5
25
13
1B
01
09
0F
FC
E7
F9
03
E5
E0
D6
06
11
F1
01
F6
FE
F5
0C
06
09
09
EE
05
15
2A
0D
DE
EC
FA
08
DA
0A
FA
1A
24
09
06
22
25
19
04
1E
18
2E
26
08
DC
4D
28
E3
14
10
2D
E7
DF
2A
09
09
D6
E5
0A
08
18
F6
05
12
FA
D2
B8
2A
1E
1E
0C
08
19
06
23
0B
0E
07
15
04
E8
F5
F8
08
09
FF
FA
08
F4
EA
E7
FD
07
04
1B
FF
E2
09
15
08
EA
0D
17
1F
E3
F7
02
0A
FB
20
00
FE
02
10
19
E0
FE
24
E4
1A
F8
2D
22
29
FB
0A
F4
05
00
03
F0
F7
FE
E9
01
F0
04
EB
0E
15
09
10
19
0B
11
DC
D2
E4
1A
EE
E1
E5
F1
04
1A
E2
F6
0A
F5
EF
2B
0C
11
F8
00
23
16
F3
FD
EC
24
16
11
0E
FF
FC
E2
1D
05
0A
EA
CF
23
04
28
F7
08
14
0E
03
12
FA
05
0B
19
F1
AF
FF
17
FE
D4
CB
FD
08
11
0E
E5
20
06
0B
13
FF
02
FA
F9
F9
EE
B1
00
15
1E
05
DD
08
14
0A
02
00
0E
F8
E7
DD
F0
F9
F8
13
FA
09
F1
EA
28
1E
F8
08
F0
09
1A
F9
0F
DA
F8
EA
19
25
ED
DF
16
06
00
FE
26
28
01
D4
EB
F4
0E
1B
11
E3
ED
05
FE
F0
F9
F9
EA
10
15
07
FF
1A
02
F8
ED
FA
0A
EF
D9
EC
04
03
0D
06
C7
05
0E
02
04
F5
14
01
F1
1A
08
ED
FD
09
FE
FE
12
13
F9
FC
EF
0C
F8
DD
CA
F3
16
04
DB
B8
00
F9
10
09
FD
FC
1B
09
ED
07
05
06
14
D6
FB
F5
01
04
0F
16
0E
CF
D0
05
11
1A
18
EF
11
F5
0A
03
DE
0E
02
FC
09
F8
09
24
FF
00
1B
07
0B
2A
E5
FF
0C
06
FF
DC
FA
0F
07
07
0B
FE
EF
0A
09
0C
13
0B
F5
09
0C
25
1F
05
E3
FF
1F
03
18
FD
F1
FD
09
FD
F9
EB
15
1B
0F
EE
11
FF
F9
DE
EE
FB
D8
09
0E
12
F7
D8
02
01
04
F8
F7
17
11
F2
10
04
0F
D0
DD
07
F3
01
04
3D
E2
00
19
F9
FD
E5
0E
0D
F5
F5
F8
FD
E8
F5
09
0C
EE
DB
F1
0E
FD
F8
02
FA
0D
E4
D9
CC
D9
E7
0D
0B
F3
16
0C
F3
E3
ED
19
08
E1
D9
FE
11
F3
0F
0F
FD
02
F3
09
F6
13
13
F3
FE
FB
02
EB
CC
0F
E0
11
29
07
EF
EF
13
11
FC
FB
FA
04
01
C6
0F
FA
B6
BC
D8
02
10
DA
DB
F9
11
E5
01
DB
17
FB
E3
E3
FE
FB
07
F4
EF
FE
00
BF
EA
19
14
0A
F1
FB
FA
DF
E9
E7
EA
0C
02
F3
FD
02
01
04
09
0E
F4
FF
12
0F
0C
28
28
16
F6
06
21
03
06
DE
F2
FD
1E
07
D6
04
0B
F5
F7
EC
05
03
E5
F8
ED
D0
D7
BD
07
0A
F5
E2
C2
02
FB
F2
00
E7
F8
EF
17
F9
05
F8
0D
11
02
0B
15
0D
0F
F8
F8
0A
F0
F6
FC
F2
02
FC
FC
04
FF
F0
F1
08
FD
05
F4
F3
09
0B
09
0C
F2
F5
08
0F
F2
F5
FF
F4
F8
F1
FE
FA
FD
03
F2
F3
F5
F6
E9
09
05
FD
08
06
00
03
F4
FA
00
F9
ED
F6
F5
F9
F3
F6
06
F7
FF
F0
F5
00
0C
F0
04
00
F2
F1
02
F2
01
F4
03
F0
05
03
EE
F1
FC
07
06
F4
00
F4
F7
08
FA
EC
FF
FC
FC
F6
F9
F7
F5
FA
00
FE
0C
FF
FF
F6
F3
04
09
FF
F3
14
02
09
04
00
FA
01
03
FD
F5
F7
F0
F6
FB
02
EF
E7
00
0B
F6
FC
03
01
F8
05
09
07
FD
FF
F3
F9
09
F3
E8
F4
FC
03
FF
F6
FF
F2
01
F4
F4
F2
FA
08
01
08
EF
F1
04
04
05
F1
05
F0
FA
FC
04
F6
EB
E9
F6
01
04
05
F2
F1
06
02
F7
FF
09
09
EF
F6
02
09
FF
FB
FC
09
F2
05
F3
FF
EC
03
F3
FF
F4
F7
EF
F6
F5
07
00
FA
0A
01
FA
F7
F2
F3
F9
02
EB
F3
00
F9
F5
FB
F2
08
FB
FF
F0
04
EF
07
FC
F8
F9
FE
0A
FE
01
F1
FB
F5
F3
01
F9
01
F5
EA
F0
F0
03
F3
04
05
F5
F6
F1
09
F8
FB
00
FD
FA
05
06
FC
00
F1
F6
F5
FC
03
09
F3
FD
01
0A
02
F7
FC
F0
FB
07
03
0A
01
FE
FA
F0
F3
0A
08
F9
0A
0A
F1
EF
F7
F7
FD
FD
08
F7
0A
01
F4
F4
05
0E
F6
00
F0
0A
02
FC
06
FC
01
F7
04
05
03
F3
01
08
F6
09
FA
0A
F6
04
F4
06
02
04
00
04
F8
F2
FB
F2
F9
FF
F0
FD
FF
EF
04
FB
EE
FC
00
00
F1
08
F8
F3
FA
F5
FC
02
F2
EC
00
F3
06
0C
F5
09
F0
FC
EE
F6
04
F8
F6
05
FB
09
F3
FC
F2
F5
FA
F4
F6
FA
F6
F5
FD
F3
00
04
0B
02
FC
F9
F0
08
06
FA
EC
C6
F8
01
02
21
01
F4
EC
FA
EF
0C
EC
C5
00
E7
03
EA
B1
07
EC
02
F1
E6
33
26
EA
F6
F9
11
1A
0F
F5
DE
15
00
DB
F8
1D
F7
F6
EA
0D
1E
02
08
04
03
25
FB
F7
0B
11
FA
01
17
FC
F5
F3
F4
09
EF
EC
F6
00
17
0B
0E
1D
EB
FA
FF
F7
0D
F2
F6
07
06
E6
FA
FA
F9
EF
06
0A
0E
0D
1D
FA
F4
1A
FD
0E
F4
00
06
F7
D0
D7
08
0B
DF
F0
11
12
13
EC
FE
FD
00
F9
F4
ED
E8
35
1B
D8
17
E5
16
16
D4
FD
E8
F0
15
07
EC
24
06
21
15
F8
F0
18
3F
FD
EE
01
B8
1B
03
E5
E7
C0
FD
EA
E2
EF
FA
1B
0A
0E
17
0B
0A
F9
0E
F6
15
F1
BD
F3
E7
E8
F7
04
1D
1F
DC
F3
F0
1A
26
09
F2
14
FF
07
FF
0E
FB
FD
0A
11
1A
E9
F6
01
FF
09
08
E9
10
D1
F9
05
02
F1
05
FF
FB
03
ED
00
08
EE
11
17
FB
F7
1D
04
F3
0C
F7
F1
F5
1F
F5
D4
D7
04
32
F5
0E
0C
13
05
14
FB
DE
EA
01
F0
E2
BC
ED
E9
CD
CD
0B
1F
04
E9
EC
22
0B
E8
D4
05
EA
E7
D7
E4
23
04
09
F7
DF
10
F8
0D
EC
EE
09
02
EE
B1
1D
15
02
CE
A0
F9
FA
0B
00
FE
01
0D
F1
DD
FB
F7
FD
00
F1
01
08
0E
1E
F5
2A
F6
0A
FB
F6
16
05
E9
FC
04
D9
FC
0B
13
1F
FB
11
15
09
15
11
11
EC
CB
D9
F5
ED
EB
11
04
23
E6
06
0A
14
FC
F6
CF
EC
DD
E3
E5
CF
D6
D3
FB
FB
EA
F2
F4
1D
F8
04
11
0C
26
05
03
FA
FA
0B
00
0C
12
18
0B
FD
BE
E1
04
01
DB
F9
0A
00
3A
09
1C
F4
F2
35
F0
FB
EB
F9
EC
EE
F4
FD
1B
FA
D7
DF
BD
16
F5
BC
D3
F4
F5
C9
D4
FD
1D
E6
FA
05
15
24
0A
F8
0D
CA
E8
F8
E8
F9
E2
0A
00
FB
22
0E
FF
F8
0F
ED
F6
FD
F2
FE
2D
F2
FC
05
12
F2
F0
EE
04
02
FD
DE
01
1A
FA
F0
F8
F6
FE
1C
DF
FB
FE
04
0F
F3
DD
F0
E5
FA
F9
DF
E1
EF
09
02
19
1D
18
19
DD
E3
01
FC
28
DE
03
04
01
F8
1A
12
17
0A
FF
09
18
0B
09
11
01
05
0F
D8
F0
09
02
13
D9
F6
0F
19
08
07
07
00
09
EB
0E
0A
06
E4
F8
1A
DA
1E
0A
02
02
F5
02
38
E4
EA
F1
F0
17
E3
02
FA
FB
FE
FE
EC
F8
0A
08
09
1C
FC
F6
F2
0B
03
01
E4
E5
02
F9
13
F5
F6
F0
01
00
0E
F9
FC
F2
F3
07
0E
E2
EC
E0
05
02
14
2A
32
E7
F8
07
06
1D
E6
11
F6
F5
06
35
F2
F5
0D
13
12
04
F8
05
0D
07
E7
EC
02
06
F1
0C
0A
06
16
E5
F7
03
F5
02
E9
FB
F1
FB
DA
F3
06
0E
CD
14
05
1D
1F
27
15
07
E3
C7
E2
1F
FA
D6
D4
11
E8
01
EA
D3
E5
07
FF
FD
E1
E3
F9
E1
E0
18
14
09
D1
E1
FB
0A
F5
F9
0A
1C
0D
0A
35
13
23
24
06
F6
E4
0F
10
E4
13
F6
01
EC
E6
01
1D
19
EE
17
E4
04
F9
F5
0B
03
E8
F7
DE
DA
07
04
F0
F0
1B
10
FB
10
12
12
04
0B
0D
F8
07
00
09
F6
F5
01
F4
EB
01
08
25
0C
EC
F3
EC
0A
0E
07
F9
EB
0C
08
FB
01
07
03
FC
E6
03
03
1B
F0
0A
EC
E8
F1
EF
FD
FF
D4
E0
F8
ED
03
02
F8
02
0B
EF
0A
13
E6
0E
06
F5
1A
10
0D
FD
F9
0C
07
F1
08
E8
F8
F4
08
11
1E
02
EB
FD
02
E1
0D
F9
18
FA
0A
0B
07
0F
F7
09
F6
0E
0E
07
03
F9
29
E3
EB
DC
FC
05
14
FA
F7
F9
15
18
FD
01
09
04
FC
F0
F8
F5
06
04
F2
05
EB
FC
0A
00
EB
FC
F2
03
F8
EB
E9
FC
FA
06
F7
F1
FE
F7
FF
0C
EA
F0
F4
F3
F1
FB
EA
FC
EA
03
F6
F3
07
0E
F6
09
00
06
F7
F3
F6
EF
03
01
06
E3
04
00
F7
ED
FE
FE
03
F0
FF
01
F0
0C
06
EA
EA
FC
08
01
01
02
EF
05
08
F2
F5
10
FA
F8
02
FE
07
F3
01
FC
0A
04
FF
FD
F1
F5
FF
0C
F2
ED
0F
F9
F5
0F
ED
F5
F6
00
FE
FF
F3
F9
FA
F5
02
06
09
F1
FC
FE
F3
FA
07
02
F5
F8
03
F9
F6
EE
E8
F2
FD
F7
F9
F0
05
F5
09
F5
00
F5
02
09
02
F3
06
09
F6
F8
02
02
06
FA
F8
F6
F4
F4
EB
F8
01
F8
02
F4
09
06
FA
07
06
F5
F7
05
F0
03
02
F7
F9
08
04
01
F4
F3
01
0B
04
01
02
EF
F6
EC
F2
EB
E9
05
01
FF
04
F2
F7
02
EE
02
FA
ED
F6
F7
F7
F0
FE
04
08
F6
E9
0C
00
0D
00
FB
FC
03
FE
F9
F7
00
05
00
05
08
08
00
FE
ED
04
ED
EF
01
EA
FD
F1
FC
F2
08
F2
02
F9
E6
09
FD
F1
EC
FC
15
FB
FA
F4
FF
FE
F9
02
05
FB
02
0B
00
F8
FC
ED
00
F6
FD
F3
EF
FA
02
E8
F9
FC
F3
FC
03
03
F1
EE
ED
F0
EF
F0
FF
F2
FE
F4
F7
F4
06
E9
F4
FC
FA
F2
00
FF
F8
00
F5
FC
04
FC
01
F5
07
0C
F1
F0
FA
E5
FD
FD
F9
06
F4
10
F0
F8
0E
F9
01
F5
EC
F6
03
06
01
F3
00
FD
FD
F5
F8
FD
F3
01
F7
F2
FC
F4
04
09
FF
F5
F9
08
E9
F3
F4
F5
F7
F2
03
FC
F0
EB
0A
FE
02
02
01
FB
0A
F0
E9
FC
F7
00
FE
F8
FB
F7
EF
FB
0F
FC
02
F0
FE
F5
F4
F8
F9
10
FB
FE
0E
05
FF
FA
0A
F5
F9
01
F0
F3
EE
B5
04
07
FC
F8
EF
09
F8
02
EF
F3
F4
01
0B
0A
D2
EC
0F
25
F4
ED
1B
07
15
E9
04
F8
F4
F9
FF
EE
FE
16
03
06
F3
0E
27
09
EB
11
07
03
DC
DF
F2
07
13
EE
20
05
04
EF
EF
24
18
09
0D
19
F2
E3
0E
0A
16
D9
EC
01
1F
15
04
10
0C
05
EE
FB
FE
EB
F7
F9
09
FF
09
11
F8
EE
FD
02
F8
CE
F2
1A
FF
F1
FC
DE
05
0F
25
14
FB
E7
D6
0D
F0
02
F4
F7
F5
10
F1
0E
F3
09
0A
DE
00
03
F9
29
09
1E
12
1B
0A
0E
0E
FA
12
F2
E2
F5
FA
03
03
E8
DD
04
1B
08
07
0D
16
1C
07
1D
EF
16
02
FE
12
06
03
FD
0A
01
EF
FD
0C
02
F4
FB
D8
F2
0D
00
02
FB
10
FB
09
F5
ED
ED
E0
2D
24
F0
00
DE
0B
0D
11
10
F1
FD
0A
23
15
F0
EA
0B
14
FF
01
04
FA
0D
0A
EF
11
F7
11
12
F5
00
05
0D
09
05
DF
E7
C7
DE
0A
E2
F3
FC
F6
FE
0E
0F
F5
FD
E1
1F
1A
0B
E2
F5
24
F5
0E
0A
ED
15
FD
0A
E9
EC
36
0A
FF
ED
FC
F9
E8
E3
F0
E9
FE
D2
F0
F0
FB
04
DE
FB
02
12
EF
FF
04
F8
04
CB
CE
F4
F5
12
DB
EA
12
1A
21
08
07
F7
F7
F5
08
F8
07
FF
0E
FE
F9
02
27
04
D4
FC
FC
18
E1
EB
08
1A
21
03
05
E9
DA
F6
02
FF
FB
01
D4
E2
13
04
E9
E4
F7
02
0B
0D
E8
FD
FE
E5
F5
02
01
02
F8
08
FE
F4
FB
F7
EC
11
17
FA
29
07
05
F0
E7
08
16
06
EF
00
FA
05
DF
CE
02
0E
F7
F3
07
16
04
12
0E
FB
F2
1A
06
EB
D6
0C
10
F9
FD
E0
F0
FB
E6
F7
FE
08
F9
01
02
F7
F4
D8
FC
ED
E6
FC
F1
F9
EF
0E
08
FD
0E
02
1F
FE
05
05
FC
0B
FE
CA
D3
F2
06
FE
F7
FA
26
0F
03
E0
00
0E
0C
D5
DB
FB
F8
F9
12
1F
F2
DF
08
35
01
EA
D4
D7
06
0E
F7
E3
C5
EC
F5
20
0D
E2
D5
1D
0F
F7
F7
2A
15
16
F7
00
0E
09
00
F9
D3
02
0C
F9
F9
F0
EB
FB
0A
0F
FB
01
0F
FF
01
EF
0E
0F
FA
0C
09
05
0B
11
0C
D4
07
14
0B
08
ED
09
F6
FC
06
FD
01
F9
03
0D
F0
FC
F7
F1
09
02
02
F8
EF
E5
FC
03
01
E9
D5
18
12
05
08
03
17
19
11
07
1C
0C
14
13
E4
F1
F0
EC
00
02
1B
F9
D3
EB
0E
0F
15
00
D1
07
01
09
17
F7
FB
13
09
10
03
03
12
1E
03
01
03
03
1C
F9
EC
01
F5
EA
DB
F5
01
FE
EA
16
0A
F5
DB
F1
15
00
FF
F7
FF
10
34
0F
F6
E4
F4
0C
02
19
08
F4
FA
13
FD
09
EC
20
15
0E
DF
26
FB
12
E7
E5
0B
FB
0A
10
03
E3
EB
12
FF
1D
05
F0
EF
1A
F5
15
E9
02
F0
D4
28
FE
EF
33
39
12
FA
05
FD
F8
EE
FD
11
02
0D
D4
FC
0C
FC
1A
1F
11
FE
E5
13
F1
FF
FE
F1
09
F1
EC
DC
D1
FB
08
F9
DF
F8
17
E1
E3
FD
18
15
D0
F5
E8
0E
0E
03
F9
04
04
FB
01
08
02
09
E1
09
05
F3
FC
E5
F9
F7
09
16
FE
F4
F1
03
03
03
F8
FA
0B
26
F9
07
00
C1
C1
F5
18
14
D2
BA
DF
F6
00
09
FF
16
F2
06
F3
1E
11
09
26
08
0D
FE
DA
EB
09
11
00
EC
FC
0C
01
E9
06
EC
03
F0
D3
08
FB
F7
02
10
09
FA
FF
0E
25
13
06
0F
EC
DF
F2
0A
F3
F8
BA
F4
19
10
E2
F4
15
1B
EB
0B
F5
F9
00
E8
06
0F
F0
C8
C9
11
FE
C4
E1
F0
10
11
21
06
E3
FC
15
19
FE
F4
E5
0E
0B
0C
19
04
0F
FB
E7
05
15
FF
10
F8
FC
20
05
ED
CE
FB
13
0B
FA
EF
FF
04
10
FD
FB
13
F9
FA
F9
DC
CD
DD
E1
0E
EC
EE
F1
ED
F6
F3
1B
16
E2
FE
05
03
EF
03
06
F6
F8
E4
EF
13
0F
01
F9
EF
08
F9
FA
02
F4
FF
EB
12
1B
08
E6
02
00
0A
FA
FF
F6
F7
F8
EA
12
0C
1C
E4
F5
F9
07
FC
F6
F1
01
03
05
07
08
F3
F3
03
E9
07
ED
F7
19
07
16
01
08
F3
1A
13
FC
EA
D6
0E
FE
F6
FF
F6
13
08
0A
04
F6
EC
E9
10
0B
F5
04
F1
17
07
14
04
E0
EE
ED
18
10
0D
EF
D9
12
0E
21
05
E6
ED
16
13
FB
DB
16
1E
0B
14
FC
EE
F4
F8
F1
F1
02
00
ED
F2
19
22
FE
08
0E
05
19
04
FB
FC
F4
F1
F3
13
19
30
EE
03
EF
FD
1B
07
07
F9
ED
0E
19
0F
F9
03
0B
0D
0D
F7
08
F8
10
F5
EF
FA
F7
1E
10
FF
05
F2
04
F4
F2
E3
E2
FA
FC
E5
E5
EB
09
FE
D3
09
FD
08
1E
08
19
DC
DF
F1
F6
E9
EA
0B
07
09
0B
12
0F
19
04
25
0A
04
FF
06
10
ED
E6
F0
18
10
FC
FC
FD
EC
16
FE
F4
0B
0F
FE
EE
11
02
0E
C7
CB
F7
14
23
FC
13
15
23
1C
F7
07
ED
04
F7
19
0A
16
04
DE
09
0D
05
20
17
E3
E2
F5
10
12
F9
F9
17
07
EB
12
EF
D2
DD
F7
01
CB
E9
CC
F1
F8
F0
F8
E1
EA
03
1B
04
17
ED
05
FD
DD
04
FD
EA
FA
EE
F7
FA
11
FE
04
FD
F9
14
24
1F
F5
D9
F3
EE
FD
0A
0B
03
E4
F0
FC
16
1E
FA
E8
D6
FD
FC
F8
FF
FC
DD
04
19
F0
DC
E0
08
19
E2
FD
E5
07
EA
F4
0E
0D
F7
F1
E7
07
0E
0C
F1
E4
15
13
22
15
F0
FD
08
F4
04
FA
04
FF
12
F0
05
07
1B
2E
07
CC
F8
F4
06
DC
F6
FD
07
DC
CF
EB
01
07
DB
C9
FD
0A
F3
FE
F0
02
ED
19
2A
FE
FE
10
08
F8
35
32
1B
02
F1
F0
FA
F0
E1
F6
30
1C
04
FE
0A
22
0A
FE
09
F0
F1
15
08
F9
08
11
FD
EE
F6
19
0E
F0
1E
24
FB
17
0D
02
F7
EA
F6
0B
03
19
16
FF
10
1B
11
F5
14
0E
05
01
0A
0E
F4
06
FE
1A
EF
D6
F5
FF
FE
ED
EC
D6
0C
F3
1D
0E
FB
EC
0A
2A
FE
E6
01
16
17
09
F6
26
04
EE
D1
09
21
F4
02
DA
FE
FA
FE
F8
07
FA
F6
03
F2
0D
10
11
03
0C
F7
FD
1C
D8
10
0B
0F
22
F6
06
F0
08
26
E2
FB
12
F1
12
F8
00
01
EB
F5
F0
FD
FF
F9
00
0C
12
1C
09
08
F0
F7
FE
FE
07
17
16
01
0E
01
04
19
09
05
EC
06
EE
00
F0
00
05
0A
1F
F4
04
F8
14
11
EA
0F
E8
F2
F2
FA
FD
0A
FC
F0
0E
10
29
F5
0E
27
13
FF
F2
C1
0C
22
FE
0E
F3
FE
F8
EC
ED
E1
F7
F6
DD
EF
07
FD
FB
E2
09
1C
E2
04
00
08
26
F4
03
D5
F9
1B
00
0C
EC
17
FB
FE
00
18
00
FC
E8
F9
06
0C
E8
EA
FA
04
06
02
02
E3
01
F6
02
EC
00
EA
DA
ED
F4
09
F9
10
1D
04
F5
28
0E
11
0B
09
11
FF
FB
18
12
03
E6
EF
EB
06
09
3B
0A
DA
DC
20
EB
F2
F7
15
00
D5
E8
E1
0B
02
FE
E2
F6
14
F6
0F
19
FB
02
D8
EB
EC
0D
05
E7
E3
E6
F3
14
32
19
0F
0B
F9
0E
20
13
FE
1A
F4
F9
06
10
25
FB
F2
07
1C
16
E8
19
12
12
F7
E9
01
D5
03
FE
01
0C
F6
05
1C
08
F6
E4
F3
22
FB
01
DE
11
17
CD
C2
E9
E4
1B
3A
23
F1
EE
05
FB
02
F8
03
0F
2B
0F
E3
FA
1B
FF
06
05
F5
FC
FA
FA
01
F1
06
FE
FE
00
E8
EE
F5
00
F6
EA
01
F4
F6
ED
FD
0A
05
F9
05
04
F2
09
FB
EB
F1
EA
03
06
F0
F8
FE
0E
F6
FD
F6
F0
F2
F2
F2
F1
F7
FD
F7
00
01
F4
FF
ED
F3
FD
FB
02
F7
FB
F9
05
0A
ED
F6
F4
F6
04
F4
F4
E8
F8
F0
03
F3
F7
F3
09
F2
0B
F6
09
FB
EB
0A
F4
F5
06
F5
FE
0D
F2
F9
FC
FB
FE
F9
F5
02
F4
04
09
02
FD
00
F2
F9
F0
F0
02
F0
ED
F9
F1
F3
F6
F8
EE
F3
F6
F3
FB
FA
FC
0F
F7
F0
FB
07
FA
F5
03
F0
EC
F0
E9
F3
F5
FA
FB
F6
FB
00
07
F3
05
05
F9
08
F7
EF
04
02
09
FA
F1
0A
FF
05
FA
05
F2
FF
09
F3
05
02
00
06
F3
F7
05
F7
F3
06
EB
F1
02
FC
F4
FA
08
F4
01
FD
F9
F0
FA
05
F0
F2
FD
09
F3
05
05
0C
EE
ED
F0
F4
ED
FD
F8
0A
F0
F2
F3
FD
02
F5
02
F2
F4
F8
F8
F1
F1
FC
F9
F5
F3
F0
FB
EE
04
F3
02
F3
00
F0
05
05
F0
FD
00
F5
F7
0D
F4
08
FB
05
F1
FB
FB
02
EF
F1
FE
F3
01
08
FF
F4
04
F3
07
EA
F1
FE
FD
02
04
0C
FF
F1
FC
F8
F0
03
08
F7
FB
F0
FC
F9
F9
FF
F6
00
08
F7
E9
06
ED
FD
FA
03
F9
F0
F4
08
ED
02
04
F2
EA
F8
F8
EB
03
E8
F0
F2
FA
F7
04
04
FE
F1
03
FF
01
F6
F0
EF
F6
04
F0
F7
04
F3
01
FE
01
FD
F6
FF
FD
FC
F8
EA
03
EF
EE
F7
FB
F5
FE
05
07
F2
FD
FF
EF
FA
00
F9
FE
02
03
01
07
04
F6
08
F9
04
F6
0E
F9
05
EC
FC
F3
04
E9
F3
EF
F3
04
F4
05
00
F6
FC
FF
F1
F5
F6
02
F1
FF
00
09
0B
F5
F0
05
F4
F3
F7
09
F6
FD
F2
0E
E4
FF
0B
15
14
E1
E8
F8
06
F6
D4
DF
FB
F3
01
D8
F1
00
FD
FC
E0
E1
FC
0D
31
00
DA
D6
D0
0A
FB
F5
E7
F7
04
FC
12
04
00
EE
09
04
F7
F9
0C
2D
08
1D
1F
00
E7
F3
F7
DC
F7
F3
02
09
E5
FD
04
03
F9
0C
09
04
F6
01
11
F9
1C
24
21
22
09
F7
F6
E9
EB
E7
06
08
FE
1A
F7
03
10
00
FA
EA
03
0B
04
E3
0F
F8
EE
11
11
01
FD
E9
11
28
02
06
C8
FB
0A
15
00
DD
17
17
0E
1C
E9
09
1F
0B
01
FC
07
F6
EE
01
12
03
F1
01
09
1A
0C
02
FF
F5
16
10
0A
ED
FA
1E
00
13
20
0B
16
0E
0A
F8
FD
F5
FD
07
08
0C
05
FB
DE
FA
E3
0C
F7
07
F9
0D
0D
0A
11
15
15
0A
02
FE
32
18
03
FB
FB
0C
1D
05
16
00
FF
F3
F5
FF
F0
E3
10
1F
06
F6
00
1E
11
04
07
F0
FB
0B
06
F3
09
E9
09
F1
F3
0D
FB
FF
F9
F8
05
03
FC
EF
03
13
06
C6
F2
48
16
03
F9
E6
F8
09
FB
F3
FF
F0
FB
DA
06
F7
FA
E0
0A
0E
FE
F6
FD
14
04
F4
05
E3
D3
F6
0F
FA
E8
F0
F9
1A
08
DB
D8
15
FC
FC
0C
D9
03
00
FC
E4
E5
F1
FA
04
FB
FF
03
FC
E7
FB
F6
0C
00
E2
05
05
06
15
F6
0C
17
01
1E
FC
02
FC
13
14
06
FB
F6
D9
F7
FE
14
EE
03
DF
E3
1A
EF
FB
F1
F2
00
F6
01
00
F5
FA
11
13
EC
07
F5
01
14
F9
EF
D5
F8
07
02
E3
06
F4
14
1C
02
22
0C
F6
17
24
08
12
F2
15
17
1C
0B
E3
DA
D1
12
FD
04
E7
E2
F0
0F
0B
DF
E6
F1
0C
05
0F
1A
02
11
FE
0A
11
FD
F7
E7
16
16
D8
CE
FA
18
FB
FD
FB
CD
06
0E
02
06
F7
0D
0A
12
18
FA
0D
06
11
02
E8
F2
EE
FD
FE
00
DC
FC
0F
01
06
F8
F2
23
EA
F5
F8
FC
03
F2
E5
1B
0D
28
07
E3
EA
F7
04
2F
13
C3
F9
0D
F4
F5
EF
1D
F0
E4
D9
EE
F0
DC
01
06
FF
1B
16
15
04
1E
E4
09
06
ED
F0
EB
17
0A
F8
F6
00
F6
0B
07
F6
1E
E7
05
05
28
1C
0C
06
0C
17
F2
14
1A
07
FE
EB
21
1C
18
11
1A
09
17
F9
0A
04
15
1C
F3
EC
04
0A
0D
F9
DB
03
2E
1D
E0
DF
02
0F
18
E2
FF
01
09
09
06
1B
22
02
F0
05
FB
14
0E
1E
0E
FF
0E
ED
0D
24
F9
FD
0F
28
FE
10
0B
E7
09
16
01
06
FF
09
1C
F2
1A
04
1F
10
EE
01
FF
02
08
FE
FF
13
EC
E0
DD
EF
C5
E7
E3
FF
06
E7
F6
FF
0E
13
11
02
03
14
01
11
0A
0A
10
FD
15
04
06
F0
04
0D
17
01
F0
FA
E7
0D
FC
F9
1B
0A
11
EA
0F
FD
02
FA
D1
09
11
10
15
1D
04
05
2A
1B
E6
01
18
05
05
C7
F1
3A
F6
E4
F2
08
FD
01
F7
F1
0F
08
11
D2
DE
D9
F8
AE
C2
E4
F6
00
DB
FB
1D
27
16
D5
0D
F5
EF
09
16
2F
05
0E
F5
F9
FF
F9
FF
15
29
0C
18
F3
E7
19
03
F3
F8
ED
F1
14
14
1D
F7
03
1C
16
03
E0
F5
0C
EB
F5
ED
09
0E
0F
0E
05
08
F8
05
0B
15
12
16
F9
E9
06
10
19
05
19
16
14
09
13
02
0A
0B
E4
D3
AD
EA
F7
ED
D0
E2
F4
EE
04
09
14
21
08
FC
F6
07
EA
F9
F8
EF
EA
EF
FA
FC
06
0A
0F
20
28
14
1C
2B
FE
0F
ED
ED
FD
FF
01
08
D7
DC
F7
D9
DD
D8
16
B3
B6
E0
EB
15
F7
21
0A
02
22
08
E7
FD
15
FE
E3
F0
F3
2B
07
E5
F4
09
06
FD
E4
DE
FF
10
FF
20
1E
17
06
0F
E2
F3
27
F8
05
FF
0E
19
08
FE
ED
3C
F8
03
1A
F3
0A
0F
F6
F9
01
04
1B
01
10
DF
0C
28
15
29
0E
ED
F6
12
20
F9
08
12
0B
26
0F
EE
F7
F9
E2
F7
E0
E0
E8
D6
FE
F7
05
F0
F5
FE
FD
0A
03
0F
DD
E9
15
FB
F5
09
FB
F3
00
F8
0E
04
05
E0
C8
F0
EE
F7
FB
0D
E4
D8
0C
06
0B
D2
01
05
F2
D6
F7
19
06
F9
14
F7
02
21
06
F4
05
EC
F0
00
05
E3
FB
05
02
F5
F6
1E
06
04
F5
E7
01
06
01
FC
0D
0B
2D
11
FD
06
02
03
FA
0B
E9
F3
EE
F7
04
F8
D9
F4
E6
02
1F
F7
FB
F8
DF
FE
F3
04
EC
E4
09
FB
11
14
01
10
19
00
27
11
1A
F0
DE
F2
04
08
03
FF
F8
FD
17
F5
F2
F3
DF
ED
E2
E6
F2
06
F9
F7
00
00
12
0B
F9
FD
14
06
09
EB
EC
00
FC
0B
F7
EE
06
F4
F4
05
14
09
08
0A
0D
15
19
08
E8
0A
E8
E4
FA
E8
0B
1A
01
00
0D
F4
27
FC
DA
0E
35
22
02
F2
20
1D
0B
05
11
31
01
F2
11
06
2F
05
E1
02
F9
1D
F6
D9
F9
FA
FB
D4
FB
19
F3
E5
FE
12
05
09
05
09
FF
F9
FC
ED
EB
F1
FD
12
F9
FD
10
08
F8
0C
F6
F3
01
0C
E0
DA
EE
10
29
DB
03
14
02
09
ED
F9
10
04
E9
FE
23
0E
ED
D8
F5
E2
07
14
11
F7
08
EE
F3
EB
04
F7
FA
F9
17
FF
FF
28
01
02
FE
F0
F6
02
10
0E
0D
0D
06
F7
FF
EF
F0
0E
FD
DE
F7
08
EB
13
EE
F5
F5
F2
F1
0E
F3
ED
DB
D1
0E
F7
18
04
FC
FB
0C
0B
0C
33
FF
0E
26
04
F8
06
04
0E
0B
DA
F2
EE
FC
F8
EA
FD
1A
25
F2
F3
1C
FC
19
F9
06
E0
FA
07
F1
F6
1B
FA
1F
02
FC
0F
03
F0
FF
00
09
02
03
FD
EF
FF
FE
F5
0C
F2
F1
F4
F1
FB
F6
0A
08
05
0B
F2
F5
0A
09
00
06
04
FF
FB
03
F2
0C
F1
F3
09
F5
F7
FB
F1
FD
FB
FB
FE
F4
FC
FC
F0
F3
09
EF
FB
F5
0C
09
05
F6
F1
FC
07
FF
F5
F1
0B
01
08
F1
00
0C
F0
F0
F0
F6
FC
05
F8
09
0A
08
F2
04
06
08
F1
FB
F6
F8
02
FD
04
F2
FA
04
F9
00
F4
0B
FE
03
FF
00
0C
F8
0B
F8
FE
F5
02
F0
02
F7
0B
0C
07
F0
05
F3
FF
F5
08
FC
03
03
08
08
FD
F3
05
F8
FB
FF
0B
0B
FC
F7
0C
06
F1
FE
F3
FA
F1
F4
F4
FB
03
F0
FA
01
03
FE
F2
FD
03
F1
F4
01
FE
09
02
06
F3
FB
FC
FA
FC
05
F5
F9
F8
00
00
FC
05
F2
09
02
08
F0
09
06
07
06
F7
FA
FE
01
F0
FB
F0
F4
F8
F9
01
08
F9
FB
03
02
0C
00
FF
F2
03
02
03
FD
FC
01
FD
FD
F0
05
F5
02
04
05
FC
FD
08
F5
F3
07
0C
09
08
F6
07
F6
04
0B
F9
F3
F3
F9
FF
0B
01
F6
FC
FA
01
04
F5
03
05
FD
F4
07
F0
05
00
FA
F9
01
F5
FD
09
FD
F4
09
07
0B
F9
EF
F9
08
02
0A
05
EF
EF
FC
F4
F4
00
FB
09
F6
05
F6
F6
0B
00
0D
F2
F8
F1
0A
05
FE
0C
F4
F3
0B
FA
07
05
02
F5
F9
0B
04
FA
03
FB
FD
01
08
0C
0B
FB
FF
EF
FD
FF
F5
0B
F8
F0
F7
FC
F2
07
00
F5
FF
F1
02
FD
FD
FF
F7
08
F3
FE
0A
01
F3
0D
F5
F8
07
F5
FE
03
06
F5
0C
09
F8
FE
F9
F6
0B
09
02
0C
F0
FF
F6
06
FF
F3
00
05
F9
FD
F4
0B
F0
F5
F3
F7
F5
02
0A
FF
01
09
EF
FF
05
01
F8
F9
F6
0D
F7
FC
FE
F3
F4
F4
01
F5
F2
F6
F9
FA
F5
02
F7
E8
0D
01
09
0E
02
0B
FB
F2
FF
F2
01
EE
F4
0E
FD
00
09
F7
F5
F5
F2
02
01
0B
07
0E
F1
EE
EB
0A
07
06
05
EE
FB
F6
00
07
F7
07
09
FF
EF
FD
FC
F3
07
ED
F5
F8
FA
09
01
FF
EF
F1
00
F3
FD
ED
EF
FF
03
F9
EF
F4
F9
03
F2
F5
EF
F4
09
F9
F8
04
F8
F4
FB
F3
04
F9
05
F9
05
00
FD
FE
FB
F6
F2
10
05
F3
FB
0A
F5
FC
EC
F0
06
FE
EE
F7
F7
FC
F5
FF
FB
F2
05
00
FB
F6
FE
08
E9
F7
F5
F3
06
F3
EA
F9
F1
04
F6
EF
FC
FC
07
FA
EA
FA
06
EE
FF
02
F2
0D
F5
0A
01
FF
E7
F5
07
F7
F2
F3
06
09
F9
FE
F5
07
EF
F4
F2
F9
FA
EA
F8
F2
F5
F9
FE
06
F6
FC
06
FC
F3
03
EB
03
07
FB
00
0B
05
FA
FB
07
FE
EF
05
07
02
01
01
F1
F6
01
FD
00
FB
F0
FF
F9
F0
12
FF
00
FD
FD
F9
01
FB
00
F6
0B
0F
00
EE
01
0A
F4
F6
FE
00
0C
FA
FE
00
FB
F1
F9
F1
09
FF
FF
FD
F1
F4
FD
01
F5
F0
03
F6
03
0A
0C
EF
FA
EE
FF
00
F2
07
FA
09
FE
0C
0D
06
FB
F2
F0
07
06
FB
03
02
01
01
FF
F1
EA
00
F6
09
F2
F6
F3
09
F6
EE
05
F7
EA
02
03
04
00
ED
F2
F2
EB
02
F4
00
F2
07
0E
08
05
06
FF
FA
F9
05
EB
07
FD
FD
F4
FA
01
F5
01
FB
EB
0D
F9
F1
F6
FE
EA
F0
03
F5
FC
F2
00
05
F9
FB
00
F6
06
FD
FB
F8
FF
02
FA
FB
04
03
F8
F1
02
EF
EB
05
F2
08
EB
EE
07
05
F7
04
F6
F1
F2
F7
F9
01
F4
FC
F8
05
0E
02
03
FD
E7
09
0A
FC
0A
F7
F8
F2
FD
FD
F5
F8
FC
0E
F9
05
00
04
07
EC
F5
EC
11
03
F8
F3
00
07
F7
03
0B
0E
F0
F4
02
E6
01
E4
FA
02
02
F8
04
01
F8
FB
EE
04
EF
F2
D9
F1
04
06
3B
23
FF
14
F2
FE
FB
0F
0A
FB
10
03
04
FA
02
E4
FA
EF
28
26
0B
06
12
29
14
F1
FF
05
F0
F6
F3
F5
FD
FE
07
F3
1F
14
0A
26
04
14
0C
01
01
DE
FC
13
27
16
FD
12
EF
0B
E3
0A
03
FA
F9
FC
FD
01
0A
F7
11
00
18
F7
F6
ED
26
F8
CE
EB
F5
EF
F3
01
DD
19
09
FB
F0
E9
0D
01
03
FD
05
02
11
18
E8
1C
13
E7
E1
FF
13
0C
F2
FB
06
07
17
05
0B
13
FF
19
1A
2D
10
1E
10
E4
18
14
F9
11
19
1B
F4
F5
CD
F6
04
01
F8
F6
FB
15
19
F4
F2
F8
FA
D7
19
3E
EE
05
0B
1C
0E
FA
FF
FE
00
E3
10
EE
F2
FC
12
11
07
19
06
07
15
06
EB
FE
02
00
05
FF
FF
06
E5
14
12
0C
17
F8
06
EC
EF
F8
F0
0F
F2
08
1D
28
1C
07
EC
37
45
22
DE
E3
11
F6
E5
B9
EB
EB
F9
06
01
E1
F5
37
15
E6
FA
F6
FC
D2
E2
E6
EC
C7
D6
10
0B
E9
F0
0F
2F
03
F6
05
FE
00
03
F1
F1
04
04
F7
EE
F8
05
EF
ED
E6
0B
0A
0D
EE
DC
E9
E5
E9
CD
E8
04
F2
F8
F0
FD
01
E9
F6
02
09
F3
F0
F7
0E
04
1E
18
18
18
02
F3
EF
F3
0D
29
FE
17
0C
1B
09
06
13
04
F0
F8
1E
0A
DE
EC
EE
FA
DD
F6
E0
17
D3
FC
28
10
12
FA
FC
08
F4
11
EA
EE
EF
08
29
03
E5
FC
1C
2F
19
19
13
17
F4
14
28
0E
10
F0
13
FB
02
06
F1
15
0E
1B
FD
F0
F8
F0
ED
1E
15
DB
F2
13
07
13
1A
21
FB
04
0C
F6
17
01
0F
16
E7
DD
04
F0
FB
EF
F8
F8
F5
EE
17
E7
FE
FA
FE
14
1D
F9
F9
EF
F0
F7
E3
FC
F9
03
01
FC
02
F1
FB
F0
F4
05
F2
F7
F2
FA
F4
E4
ED
F6
F2
EC
FC
F8
07
F8
FA
EE
E2
E8
E9
FE
0B
0A
1A
05
F8
F6
01
F1
E3
EC
04
E4
03
EE
01
0B
F4
FF
E4
FE
06
E4
E0
0C
0C
F6
F7
F2
E5
F0
E0
F0
F8
FD
FF
0A
F9
01
0B
09
12
04
E2
FA
FE
04
F8
EB
04
FF
F7
E6
F9
FC
09
F0
F4
F4
F8
F5
E8
FA
EE
01
F0
FD
F0
FC
FF
F1
04
FC
EC
05
E5
FB
E0
EC
F7
E0
04
02
01
FE
E0
F8
F1
E4
FC
EF
08
F8
EA
FE
F9
E9
1C
06
06
F3
E4
DC
04
07
FF
D9
05
00
FE
00
E9
0E
EC
FC
FC
09
FA
FA
E4
EA
FD
F4
FD
FE
FB
0E
F2
0C
F7
05
FC
F1
F5
EC
0C
FE
FB
FF
EC
F2
FB
EB
00
F1
FC
F2
EB
EF
E6
F7
FE
04
00
00
F9
F6
EF
F4
E8
05
EB
FC
F3
EB
EC
06
F3
E0
FA
EA
15
01
F8
FD
EE
F8
EB
FB
DE
FF
FA
FA
04
16
F9
0A
EE
09
06
FD
04
FE
08
E7
FB
01
0A
0B
0A
FA
FA
E9
07
FC
FD
DF
F5
EE
F4
F6
F7
F4
03
E6
F9
EE
0E
10
EE
06
E9
E5
EC
F8
06
F0
E1
DB
F0
E7
EA
F4
E7
EC
05
EC
E2
0E
E5
F4
FD
06
FA
DC
FC
F6
FC
E8
F0
05
EB
E8
E3
F6
F5
E6
EC
EE
F3
F4
EC
FA
0D
01
00
09
E9
ED
F5
07
00
E5
E5
F9
F5
F0
F8
F6
03
02
F3
F1
FD
FC
F2
E4
E3
E8
ED
F9
ED
FF
FE
EC
03
04
04
F9
F6
F1
09
F2
EE
0E
0E
E9
F1
EF
E6
00
03
06
01
F4
F6
05
DF
FB
F4
ED
EA
0F
F1
F4
12
1D
0D
10
F5
E3
02
F5
DB
F8
FB
F2
FE
FD
F6
04
E8
FC
01
EE
0C
F5
FF
1A
F9
09
E1
F4
F4
FC
FE
E5
02
EF
EE
FD
EC
FA
FC
F7
F1
F9
0D
43
3B
20
FB
24
10
FF
E8
EB
16
EB
10
FB
01
1C
23
01
0F
F4
FB
13
02
04
F0
F2
C9
00
08
25
D4
BA
E0
F8
0D
09
0C
FE
08
0B
01
FC
06
14
1A
FD
09
14
FE
0A
E4
C0
CE
FB
1D
D6
D5
F3
02
0A
18
0F
FA
1F
1F
1C
06
13
13
F5
EC
F5
12
F8
F0
0C
FD
FE
12
22
06
08
27
1C
25
0A
02
05
08
F7
08
F8
0F
F5
0E
09
F4
FD
F0
FD
F0
12
34
39
1A
E6
F5
28
3C
EF
18
18
19
FB
F9
0C
1E
FC
E3
06
01
F4
09
EC
F4
FE
ED
F1
ED
F0
24
1E
11
09
E9
F3
02
F4
FB
25
FC
F5
03
E9
ED
D5
EC
E4
0D
F6
FE
C9
D6
E7
DA
02
FA
E0
E1
D3
0D
F0
14
0F
2C
14
F7
1A
24
26
FF
02
FB
0A
10
FA
D7
EA
12
09
F0
F5
E3
E5
07
02
F2
F4
1C
F2
03
F8
0D
0B
1D
F6
12
03
17
06
E5
14
E0
D1
EA
FC
0E
F7
D9
0C
17
1B
FB
16
24
FF
21
0C
F7
14
EB
FE
ED
D5
E6
F4
DE
D0
DE
06
D9
FB
EE
F6
0E
F1
1B
25
0C
09
0C
01
0B
FE
01
F7
F8
15
F5
11
45
51
40
3A
27
14
07
1B
11
ED
0F
FC
15
F3
F0
1B
12
04
F7
0B
FD
1B
08
F8
FC
09
EE
F3
E1
EE
F8
FE
02
0A
1B
FA
17
06
FC
10
17
FE
14
09
10
03
FD
E9
E5
F1
06
01
2D
20
1A
0C
06
06
0A
18
07
17
D7
F8
09
19
16
E7
07
07
0C
F5
18
1F
07
08
F3
F0
B8
BC
F4
FB
EC
D9
DC
FD
0D
06
05
EA
0C
01
FF
2B
0D
D0
EF
F8
F7
16
EE
BA
BA
EF
14
00
E3
F5
E8
00
0D
0D
12
20
19
0E
06
14
02
03
02
0C
1A
04
CF
0C
0A
2F
09
03
0A
19
20
FD
F5
1A
20
04
F3
00
F8
0A
E8
F9
E6
02
04
E0
FF
18
2F
07
CC
DE
CE
EE
05
FD
03
E1
DE
E0
0C
18
F4
FD
27
30
02
03
01
0D
10
F5
0B
C7
05
F9
0F
0D
CC
13
0D
16
31
F6
0E
25
DD
EC
01
09
08
E7
ED
02
F2
F5
FD
FA
F2
0E
FE
0B
10
E6
19
0F
03
F7
F4
06
ED
10
FB
F8
F9
FB
F9
F8
FB
F2
08
13
0F
11
F1
F5
FC
37
05
0B
EF
E0
DF
2A
06
F5
D2
E5
1D
08
FB
09
2D
00
F9
E8
0F
16
F9
0F
03
01
E7
11
18
03
E7
FC
0D
E7
F3
FB
F6
E5
EF
F2
0A
12
05
F6
18
26
19
FD
0D
EB
F3
F5
00
FF
04
03
F7
2B
15
F5
FD
F7
06
16
FD
0D
19
00
0F
FA
DE
13
E8
F1
F2
00
EF
EE
F1
12
FD
24
0B
13
16
FA
F2
F5
11
0E
05
E1
F5
10
09
F6
EC
D5
E7
01
04
1F
F4
D6
F7
F0
06
0D
0C
F2
05
F6
18
05
F1
E9
0B
FD
03
0D
06
FD
14
F2
03
ED
02
07
0D
E8
E9
10
08
F9
F4
F9
E7
02
01
FF
16
01
EC
02
15
12
06
D0
EB
1E
31
16
BF
06
16
0A
1B
10
41
EE
E5
06
FD
24
F7
06
FC
F1
01
03
D9
FA
05
0B
DF
EF
E0
25
02
F2
DD
CA
27
FA
F3
08
F4
21
0F
00
10
11
FD
06
03
07
1D
F7
03
00
FE
18
03
07
1A
0D
F2
0A
0A
F9
CC
D1
0A
FB
06
ED
FA
F6
EA
F5
FA
1A
14
1A
3D
04
DB
15
11
ED
1A
05
C1
F7
FE
11
0D
06
1C
F9
02
FF
0A
1C
F3
EB
E8
00
FC
0D
05
0B
2A
0B
FF
22
40
2C
15
FF
FD
0D
0C
01
EE
E1
F0
F5
F6
0C
EE
EF
CD
E8
F4
0C
16
DD
09
F5
1E
33
2D
0C
F9
04
11
12
F7
FD
07
03
06
FE
FB
F7
F4
F1
1D
1D
F9
FA
0F
27
EB
F0
EA
11
24
0A
28
18
18
FB
04
1D
08
FC
13
FE
FA
D6
F8
F9
24
0F
07
0B
05
FB
FC
0D
25
05
F8
05
F7
18
01
EE
07
13
FC
D9
EF
05
18
05
E7
E4
DC
CD
F4
D6
FB
F9
DA
05
FA
F5
15
08
F7
FA
05
FC
FE
E6
07
00
09
02
FD
0D
F9
DF
F9
11
FD
01
FE
00
0A
03
20
0E
0A
F4
F7
1F
FD
12
EA
0C
1A
1D
09
0D
28
EE
FF
F5
F4
07
E7
08
06
FA
04
14
FA
06
0F
16
16
F5
F4
19
05
F9
F1
20
11
F5
FF
1D
06
0A
E4
03
04
0E
10
0B
F0
F5
08
1A
18
01
07
07
0A
EA
D9
07
01
10
F4
11
FB
FE
07
FD
04
0A
23
EB
FB
0D
06
00
EC
FA
1D
0C
14
21
13
1F
16
16
02
F5
F3
0E
E4
06
FA
03
08
08
F6
0B
F3
F6
E8
DF
03
FE
01
FE
ED
04
FA
01
F6
30
18
EF
F6
E7
20
0B
01
1A
07
0B
FA
FF
1B
FA
FF
FE
0F
0A
EB
EB
FC
0B
EF
07
08
F2
02
06
0B
F2
14
1A
F7
F8
FF
12
EA
F3
F2
FF
F4
EA
DB
F9
FF
12
E1
F1
F5
23
FF
E8
E5
FA
30
FD
EA
07
FB
03
E2
F3
1D
E0
E3
DD
EB
F9
DD
10
0E
0F
14
F0
08
E2
14
05
16
E9
F7
FA
1A
15
01
02
1A
06
EB
21
09
16
EF
F4
FC
D9
FA
FB
1A
0F
F0
FE
03
F0
12
0E
F1
14
F7
15
02
11
23
15
08
1D
0E
16
E7
F6
04
F0
F9
0A
13
E8
F0
DE
14
09
E9
15
D9
E7
32
00
FF
F1
F4
09
F8
FD
C8
FD
EB
E6
FA
DE
0E
FD
11
0A
06
0B
EE
03
08
05
F3
F4
EE
FD
0B
FA
0D
FB
F2
01
FB
29
1A
F5
03
F6
22
08
F5
F3
CF
0E
E3
1C
FB
E6
F0
F9
1A
DE
F0
C7
FB
F9
E8
0A
0B
17
FF
0E
1A
1D
EA
F2
08
16
01
D6
F1
0A
08
EF
EF
08
DD
01
09
F8
12
00
0B
0B
0A
FA
F2
17
F7
DD
CE
E1
0D
06
32
07
11
09
28
1B
06
02
F9
00
FD
FF
EF
E9
2E
1F
F1
E5
E6
2C
21
DD
BF
D6
09
23
E4
C9
AD
FC
0A
F8
E2
EC
21
0C
FB
0F
00
FC
16
0A
00
14
F5
01
FA
14
08
02
1C
F3
F6
F4
26
11
D6
D5
E1
FE
02
EF
05
FE
F7
F6
EE
E3
FF
EC
CE
EB
F2
F9
F6
DC
13
00
DA
E7
12
01
1E
28
15
02
EF
14
34
15
FB
EA
01
0C
07
E6
03
FF
FB
13
18
FC
EA
10
19
05
E4
0D
FF
12
F5
25
30
E1
02
06
2C
0D
F1
14
0C
0E
FF
07
32
0A
E1
02
FE
FE
FA
E0
E6
13
F6
F0
C6
D8
04
00
FD
EA
DA
E8
F2
14
0C
12
04
08
1D
09
12
03
10
E3
CE
E0
DB
E4
FC
FA
0D
01
EE
E9
05
00
19
EC
E5
02
CF
0D
1E
FC
F3
EC
0C
1A
11
E2
EA
14
0F
F3
F8
F3
0E
00
19
F8
FB
FA
F3
F9
16
02
F4
0A
13
1D
10
F0
0E
05
15
17
B2
FD
DF
FE
1E
FC
0A
00
F1
FD
1B
05
11
F1
16
F4
04
F9
F2
EE
0B
F3
E7
E7
FA
0F
DD
0D
05
06
15
F3
02
0D
01
E2
CE
B8
C4
D9
FB
F4
F9
E7
F5
0C
0E
15
F3
16
26
34
23
F4
F3
00
2C
13
03
E4
DA
DC
E9
05
F7
28
FB
05
EF
E6
EF
05
0A
13
D0
CB
1F
0D
01
FD
30
06
15
FE
FF
0E
0D
10
1F
EC
D6
FC
2C
09
14
E8
F8
EF
12
27
DE
F9
06
F6
10
04
0F
38
02
00
0B
F3
F8
20
21
16
03
CC
EE
08
16
FD
D8
C5
E0
F4
07
04
F7
03
16
05
00
E7
05
0F
FE
19
14
E7
E7
FF
0B
FB
E6
EA
DF
E4
DD
F7
CC
12
05
17
0D
2C
01
0A
08
FB
21
ED
F9
EF
FC
00
0A
1F
F7
11
15
DB
F4
DF
1A
0D
FB
FF
FD
03
E4
FC
F4
11
E6
F3
12
11
17
1A
15
1D
FB
1B
16
03
FC
E2
06
06
FC
0E
1A
04
FF
F6
11
24
08
1D
F9
0C
B1
DB
DB
02
AB
CA
C0
D5
F6
FA
02
ED
FC
08
12
15
18
0A
0D
1C
FD
F8
E6
12
FB
C0
DA
FB
0B
CB
CB
E4
F0
FB
11
0C
F3
18
15
17
0B
00
F8
FA
01
F0
EB
EC
F7
F6
EA
F2
FF
01
F2
F8
15
08
27
E0
FE
11
0F
FE
08
1C
F4
EF
EA
FD
FD
01
06
0D
F2
FF
31
39
15
E1
04
1E
18
10
08
13
F1
04
ED
18
0E
E1
DA
F4
05
DD
FE
E1
F6
EE
EC
03
EE
F0
1B
15
FF
F9
DA
EA
EE
E6
F9
0B
D9
07
DE
FF
FF
DD
CD
10
11
09
03
D7
DA
F5
FB
EF
D0
ED
E2
EB
04
E8
06
01
00
1B
07
0C
10
12
00
D3
04
1E
1A
E8
D9
D5
E9
00
F3
EB
EC
FD
09
08
07
FD
22
FA
1E
F3
03
09
1A
19
17
EF
08
F7
F5
24
FD
E9
0B
FE
16
0C
C7
ED
05
F3
0D
07
E8
FD
F8
1F
0F
D6
FE
15
F0
02
08
12
EB
F1
D2
00
D3
E5
00
EF
15
F5
0B
01
2D
32
06
14
26
16
0B
F0
CF
E8
FF
1B
15
11
35
1F
24
DB
02
13
18
0D
DB
08
0A
ED
05
EE
05
06
FA
FD
2D
1A
03
15
17
04
F5
EA
F7
01
EB
EE
06
04
F8
FD
0E
11
F2
03
08
16
F4
07
FA
17
19
FE
D0
E6
FE
19
20
0D
FB
12
E5
15
DB
06
EF
F9
F1
C4
D3
10
03
F3
0D
0C
19
11
F6
17
08
01
11
FC
E8
AF
F8
FB
0E
EE
EF
06
0E
1C
0E
0F
EF
F5
0D
23
04
E7
E8
E6
11
2F
01
BC
AC
E0
ED
DD
E8
E9
CB
F2
FE
0F
EB
1C
0C
07
1A
0D
F9
09
FD
F7
F0
13
E5
12
08
0E
1E
0E
0B
1C
22
14
0C
1A
08
17
FB
F7
E6
F3
F0
04
FA
E6
0E
F1
15
0E
FC
FE
04
0C
FB
F5
01
03
01
EF
FF
F6
02
0A
07
F2
02
00
01
F7
F3
F0
FC
05
F0
00
07
EE
F4
05
EF
FA
EA
FA
07
04
FE
04
0C
F1
08
FC
EB
02
F9
EC
F2
FE
FB
FB
0B
0B
04
FF
FE
0A
FE
F4
F7
F0
F4
0D
F3
FB
EB
06
F7
0C
04
F1
F8
FC
FA
F2
FE
F4
F5
03
06
F0
00
0A
05
F3
F0
FD
07
FD
F0
0D
F3
02
F6
02
FB
FC
FC
0D
F7
FD
F3
F6
FF
F3
F8
FB
F3
04
FF
01
0C
F4
FF
FC
F3
FA
02
05
FD
09
08
0A
0C
FF
FE
05
FC
07
FE
F3
ED
FE
04
02
03
08
F1
FE
FF
F5
F4
F2
04
F8
F3
F8
FA
08
F7
03
FD
06
F6
03
02
08
05
FF
0B
F3
F9
05
06
F4
FA
0A
F0
02
0B
F6
FD
02
05
FC
F1
FD
00
08
01
09
F8
FC
02
0A
05
0B
03
06
01
0B
0A
07
F1
FC
F9
FC
09
F4
F6
F7
FE
F3
01
F1
F6
05
05
F6
F9
FC
F5
FB
07
FB
08
F2
F7
F2
EE
FE
08
F2
F4
F9
07
06
FD
0C
03
0C
FD
F5
FF
03
04
FE
FF
01
FB
02
F5
FA
04
02
05
F4
FA
F7
F3
F8
FD
FE
01
F5
FD
02
09
05
F2
F5
0A
06
06
F6
0B
F0
F2
00
05
F1
00
FE
FC
F3
F7
FF
02
07
F9
0C
03
F3
EC
08
FF
FC
F9
05
F9
EF
08
F8
07
F0
F5
F6
FF
FC
03
F5
F0
04
F2
06
EF
01
FD
F7
01
F8
FD
09
F3
08
0F
F2
F2
02
FD
FD
F0
04
FA
FD
F4
03
FE
F8
02
F9
02
EF
F8
F4
05
F4
08
01
06
F2
F2
FC
F5
F7
08
06
FA
07
F4
F6
04
08
FD
F2
FF
06
06
0A
F3
04
FA
F6
01
F4
04
F2
EC
FB
00
00
F4
06
05
F4
FA
FA
F3
F1
F4
0C
FA
FF
F2
FC
04
FE
FD
FB
08
F4
F3
F0
03
F6
F8
FD
07
FE
01
FA
10
D2
DD
F6
E2
D3
E7
D8
03
05
01
DF
EC
FF
E7
F0
04
0A
F1
F5
F9
F8
FD
04
2D
97
F6
FD
0A
E7
E3
03
16
02
02
C4
E3
FB
15
FD
F7
1A
07
E9
AA
D5
C3
D7
EE
E6
1D
20
1C
01
FC
FA
1E
15
FF
15
C4
F2
F9
EB
F1
EE
F1
F7
EA
E7
DD
FA
04
20
1B
16
20
FF
0C
F4
07
FC
DD
F4
D7
22
07
0D
F1
EF
1C
26
00
D9
ED
FF
0D
01
00
20
1A
1A
FB
ED
06
26
18
DC
DB
05
FD
03
06
FC
10
E0
E7
F3
FC
13
03
ED
F4
17
24
19
0B
FF
F8
F4
C3
D2
04
FB
FD
1F
1B
FE
F6
08
E2
16
31
24
08
1C
22
18
1E
0A
18
26
F7
FA
F9
FD
FF
19
2A
1A
E4
02
F3
FE
FE
EF
08
06
F4
EE
E9
EF
EF
08
FE
F8
F6
EE
EE
EC
09
06
13
10
F6
F0
FA
FE
F8
F6
F6
0A
00
FC
E1
E8
F5
05
F6
FE
1D
06
FC
11
18
16
08
E8
15
16
F8
09
D2
DA
D9
FA
0B
CF
FA
24
FF
09
00
F4
04
02
16
0F
0D
00
DC
E7
FD
15
EE
E4
0E
FB
E7
F5
0B
FD
FF
00
E7
FE
E8
08
0E
F4
E6
F6
F1
D5
00
13
10
FC
EB
FB
F1
22
00
05
FC
E3
26
0A
F1
F3
DB
F3
E3
14
1F
F9
13
1C
23
06
10
0E
F9
02
DB
02
F4
F8
0B
F3
F7
04
10
04
E1
FA
EE
F5
E7
09
0C
0A
DA
DD
15
0A
F7
12
08
FF
FE
EB
10
09
F9
EF
E8
00
FE
FF
F0
FA
FE
DC
DB
F8
08
0B
06
17
1C
17
0A
01
14
F7
06
FC
0B
14
DF
09
04
00
F3
0D
03
02
0D
F8
07
1F
13
F9
F8
E2
EB
05
15
0C
FE
F9
FD
FF
14
14
F5
01
E7
E7
E9
ED
FB
EB
09
0D
08
FE
0A
E6
DD
F4
F2
ED
02
FC
1E
17
FE
ED
E8
F5
2A
01
02
0F
0D
FF
02
1D
18
EE
06
FE
E9
E8
CD
EC
13
EF
CC
D6
1B
12
08
FE
19
25
03
0E
F8
17
14
F6
10
A0
07
0D
26
1E
F1
F5
05
0A
23
F8
FA
01
18
1D
0C
18
14
F3
D7
06
FF
FA
00
E4
FB
04
05
16
17
02
FD
10
0C
0C
DC
E9
16
11
04
09
0F
F5
F3
E8
27
0B
FB
00
16
FE
03
01
FC
13
F8
02
EF
F8
FE
05
03
FB
D9
DE
F8
01
14
F3
E6
F2
01
08
06
03
01
0C
13
13
02
FE
00
F6
10
E6
ED
CB
F2
0B
FA
F5
F3
EF
F3
00
1C
03
18
00
03
06
01
FD
F5
E2
EB
00
0A
E3
F6
1D
0D
12
07
01
F1
06
17
12
07
04
02
06
0C
22
F9
00
F9
FA
ED
E5
E9
EF
05
23
FD
08
01
FA
F6
25
28
07
FB
ED
1C
1E
F6
F8
06
FC
FB
13
26
0A
07
08
E5
08
01
03
04
FA
19
08
08
0F
09
F9
FE
0D
11
11
F9
D6
0B
FC
0B
07
09
F6
EC
F8
D7
F6
E7
22
0D
EB
C7
E5
07
19
FB
10
F8
F4
15
0B
23
EB
0E
2B
2A
1A
EB
12
FE
18
13
30
1A
F3
05
EA
20
0E
00
04
FC
38
09
F6
E9
F1
14
EA
F8
1A
04
F8
EE
0E
EE
E1
BC
E0
09
01
FD
C7
00
0C
F4
00
04
0E
0A
0D
18
0B
0F
03
FE
0C
FB
08
FF
00
EB
E8
F2
EB
0C
0B
ED
15
EC
D9
D7
FC
16
04
F4
00
16
0F
FD
E2
F3
0A
CD
03
09
18
F3
FF
00
0D
1B
06
0C
F9
07
02
06
0D
F4
E7
FD
03
08
FF
FB
0B
1B
1F
1F
FD
06
0C
1F
1A
F9
FC
FD
F6
F3
F5
F7
08
01
07
FE
02
F3
EF
EA
09
0F
0F
F3
11
0F
3D
2C
10
07
0D
22
2A
05
F4
05
05
19
03
0F
F7
ED
09
ED
13
F0
06
E5
00
ED
E8
EF
0C
2A
2A
10
05
14
0D
17
00
FC
06
0D
10
0A
11
24
37
21
E7
FD
0A
04
E2
EB
0B
0C
F4
FE
13
F3
12
14
02
0B
03
DF
F1
12
26
02
C6
D3
04
20
1E
D6
E5
00
08
11
00
D3
D5
09
27
FA
E0
E0
DF
D9
E0
EB
12
FA
E7
E4
04
F6
EF
1F
FC
F0
EA
02
1D
17
05
F4
08
00
F1
FF
02
E8
E5
E8
F2
13
FE
0F
F1
FF
0C
FB
2B
F5
FD
F2
FF
2B
08
04
FF
03
17
01
FC
05
DF
E2
0B
FA
0B
EF
FC
01
0D
1B
41
05
0E
07
20
26
F6
00
14
DF
0C
FC
F3
0F
CC
F8
1F
07
E5
EA
F0
1B
F5
FC
FC
F9
15
14
2B
03
F2
06
FA
3E
04
F4
E8
D3
10
24
16
E8
D2
0E
11
F4
1A
F8
EB
ED
0C
02
03
EB
E7
11
1C
FA
04
FB
0E
04
F3
03
E2
E9
00
02
FE
F2
03
F8
11
D9
E8
04
07
FE
E9
EE
F7
11
FB
ED
ED
11
1B
15
F4
08
ED
ED
ED
FA
1B
15
F3
06
12
DF
05
06
03
F9
18
F4
19
18
26
F4
D3
E1
15
20
F9
F1
1A
F3
06
E2
DF
F8
FB
04
08
17
13
08
05
ED
12
10
F3
F5
F5
FF
FA
FF
F3
06
F4
F0
07
01
2D
19
00
10
17
43
19
3A
09
0D
10
F8
08
FF
F2
F9
FC
05
19
0B
23
F3
DC
FC
01
F7
F9
0C
FE
FC
0F
DE
F8
10
10
FB
F4
19
EC
F8
01
0F
04
0E
1D
03
F1
04
EE
F2
F1
E5
C8
FE
13
36
14
FD
F4
F3
0E
12
0C
16
0C
E9
08
14
14
FE
EA
E3
14
03
C4
EF
D9
E2
1B
F1
ED
F6
20
0E
21
11
E2
11
FF
12
0E
0C
F6
FD
13
0F
10
05
EC
0D
06
00
03
EC
E8
F1
09
19
FD
E6
04
11
35
15
E5
EE
F5
19
F3
E2
D8
D7
0B
03
16
0D
F0
D9
09
F5
12
F9
14
01
12
13
F4
F6
1C
13
0F
01
EC
E1
EA
01
0B
19
F8
F3
EB
EE
0E
F4
00
FD
22
0F
FC
06
FC
0C
08
DE
F1
F8
FF
FD
F1
F7
EB
0C
0E
FD
ED
EA
0B
01
3C
FD
EF
04
02
18
18
0D
EF
15
0B
01
0A
11
EF
FF
07
E6
D8
F6
17
0D
F1
E9
FB
26
F4
06
06
E9
FC
F8
EC
F2
FF
0C
FC
01
E4
E7
1F
0F
03
10
FF
09
FB
01
F0
F8
10
E9
02
0B
D8
F4
0D
F1
0C
14
E5
FC
02
12
08
04
F3
FA
11
07
08
E0
0D
29
07
FF
F7
07
09
0A
F3
F7
EC
10
FA
01
EC
FB
1A
01
FA
FC
F9
F2
09
F8
0E
FF
F0
EA
0A
F8
F5
00
EC
FC
F4
EE
0E
0E
21
F6
FA
19
08
05
F9
0B
12
0D
11
D3
E8
21
20
06
FA
13
F7
1F
18
F6
04
EE
EA
F9
FB
09
14
FE
35
FE
16
19
27
07
11
04
00
21
10
0A
0A
1A
FD
03
FA
F1
13
09
FA
04
F5
FB
02
04
05
0D
F2
F9
19
12
08
ED
01
0C
1E
0B
FE
08
03
02
06
F8
CC
FD
F3
16
31
D8
08
F3
3B
2A
CD
FC
FF
05
18
01
0A
07
06
ED
02
37
14
0B
FF
09
F1
FA
26
10
07
1F
10
11
ED
1D
10
12
EB
D7
25
0E
F2
E6
17
FA
EB
0B
22
0E
15
E1
E9
CD
0C
1D
0F
D6
D8
29
18
EF
E5
0E
2D
14
15
FA
FE
09
00
FE
FC
FD
EB
F4
F2
0A
ED
00
00
04
EC
FB
10
0C
FE
D8
0E
0B
EA
F8
D7
C5
E4
DD
03
E9
E7
0A
0F
02
EF
1A
FB
1F
F1
FD
01
13
DA
1D
16
EA
EB
FE
0A
0F
F9
01
F5
00
15
03
05
DB
09
F3
17
2A
FF
0B
02
EF
FA
33
F4
FA
E9
FA
24
02
E6
F1
F2
F2
0D
1A
F9
E0
E3
0D
23
0E
E9
E8
1C
13
EA
F0
E4
19
E6
F1
0E
FD
16
DE
EB
07
26
17
F1
20
12
09
F5
0E
EC
08
14
0A
20
DF
FD
0B
F3
FA
04
1B
22
09
FD
EA
F1
EA
E7
DE
E9
F0
FA
19
13
09
EB
E4
06
11
FE
F4
F8
EA
D7
07
14
16
24
1A
02
FE
FB
E6
03
14
13
F7
D9
D8
EB
FB
18
CA
D7
01
16
07
FF
F5
FA
05
0F
01
14
F9
F3
F9
04
09
FE
F7
F9
03
03
EC
F8
0C
F3
10
0F
F2
0F
D7
E5
F2
00
19
11
27
F8
11
0E
1A
06
FC
F7
F8
11
13
12
F9
1C
10
11
05
01
F0
18
23
DE
EF
E8
06
13
FB
0C
15
0E
FC
FD
FB
FA
04
EE
06
FC
0F
29
16
14
09
09
E1
DB
DB
02
11
01
16
03
F5
0C
0E
03
11
10
0E
00
22
1B
09
F8
B7
13
1B
0A
14
0C
20
F9
E2
F0
1A
FD
1D
08
F7
04
04
0A
11
14
F7
0F
02
02
F2
CA
00
04
FA
0C
D5
F6
F4
02
F8
08
02
F2
F5
0E
FC
FD
F6
FF
FC
03
0C
07
02
11
05
09
FB
0E
01
DF
F5
1D
08
07
09
08
F7
04
06
EF
FF
F8
0E
16
27
13
F1
FA
14
17
16
D0
F6
25
E1
DE
C3
EF
CC
0D
DF
E8
F6
F7
FB
FA
E1
EF
F6
D4
EB
01
DC
D4
B9
DA
06
01
E6
E8
08
26
1A
14
07
16
11
EE
0E
11
0B
FC
FD
F9
FD
1A
0D
F9
0E
30
2A
1A
F0
F4
F7
F8
F4
F1
06
19
16
FA
F6
FA
17
16
F9
11
F0
0C
F7
F1
09
14
0E
1E
05
01
05
04
F9
EB
F0
F1
15
11
FC
FE
07
F6
FF
03
03
05
28
0E
FF
09
EA
0B
ED
E1
E6
08
EA
B7
E8
E1
08
F2
00
0F
05
19
13
04
00
03
FF
08
F7
FF
0A
02
10
0B
FA
05
F7
13
06
09
0B
FC
05
1C
07
11
05
09
F6
FC
0D
D6
D9
E4
E9
F1
07
BB
DA
EA
02
1C
FC
0F
03
F4
08
04
0C
F8
05
F8
1A
FC
E3
FD
12
0D
19
F7
08
00
F9
EE
11
F1
0E
20
03
FE
F5
19
FE
F7
F9
0E
F9
E5
06
01
09
F0
07
1C
E9
F8
F6
FE
0F
EA
0A
09
FF
02
EA
F5
EF
21
08
07
06
F8
07
FE
00
F1
F0
01
EA
E0
E9
FD
01
10
F6
E4
F0
FB
EF
F4
F0
EB
11
E9
F7
ED
F2
0F
FB
FF
F0
01
FB
FB
F4
F5
FC
E2
E8
EC
00
0F
05
F6
E9
E6
0C
02
EB
03
E3
00
FC
FF
EB
01
F2
F5
0F
0B
02
FC
F6
F8
06
F9
FB
FE
E8
00
07
E0
F5
F4
F6
01
01
04
F4
F5
F3
08
0A
F8
ED
FD
0C
FF
F8
F4
E9
FB
E8
ED
FB
FC
10
FF
00
F9
F0
E6
1A
10
08
ED
F5
E9
10
F2
FC
FD
EA
07
03
09
FC
F1
EA
FA
09
F6
16
ED
F0
00
0C
E7
FC
00
F4
FD
09
E8
FA
FA
E6
FD
EE
F7
01
FB
F9
ED
E8
FF
F3
06
00
EC
09
02
E6
EF
EF
10
06
EA
E2
EC
F4
FE
E5
E2
EA
FC
01
F8
03
F6
EF
FA
F3
10
F3
F2
F4
F5
03
02
06
12
F6
EE
F7
E2
FE
03
05
0A
00
F9
EC
F1
FB
07
03
F0
0C
F0
07
FD
E7
F5
03
F7
FF
FC
F4
FA
EC
EB
E3
07
EA
04
00
E8
E1
FA
ED
F7
0F
DE
F1
00
F7
D9
08
E5
EC
F8
FA
10
F2
F7
04
0F
0D
EB
02
00
EB
02
EC
04
ED
18
EF
EF
03
00
E3
03
F2
ED
F6
E6
08
FB
ED
DF
0D
F4
EF
F7
F4
FF
EE
ED
ED
F6
FD
07
00
19
F7
FC
E5
EE
F3
E8
0F
E7
0F
11
08
06
04
11
20
EC
FF
FF
E0
0F
08
07
0B
01
02
00
E8
F2
01
0D
04
F6
F6
FA
F8
FF
FE
E8
F6
EC
F7
FF
F8
FD
E9
F8
0B
F5
F4
FF
04
FD
07
10
0C
DE
07
F9
01
E9
0A
F6
0A
F0
06
EB
F9
FC
F4
F4
FA
12
02
E9
FE
0D
0D
01
03
05
04
18
FE
FC
02
09
EF
F8
FB
FC
FE
08
E8
F5
FA
EA
F2
02
09
FD
05
00
03
0B
08
06
F4
F3
09
0B
03
01
FB
03
F4
FD
0A
F5
F0
FB
06
F5
08
03
04
09
03
FD
F0
0A
F8
F4
FF
07
FF
F3
F1
01
02
04
0C
F5
FD
08
FA
F9
F4
FD
F6
F4
EF
03
FB
02
04
EE
FA
09
FA
08
F0
0A
04
F3
02
08
06
FF
F7
FA
F5
0C
00
01
F5
F0
FC
05
07
FA
06
FB
F8
0A
FF
05
F0
FD
F8
05
08
FF
06
F4
FB
09
F5
01
03
F1
F5
F2
ED
F8
02
02
05
FD
F4
F1
0B
FF
09
F1
F6
FD
09
F0
F7
F3
05
FD
F7
07
EF
FD
F8
F9
FE
FC
0B
F3
F7
FC
F9
0C
05
0A
08
FD
0A
FE
08
FF
04
05
FB
09
0A
FB
F9
F0
05
F1
EF
09
04
0C
F2
F6
FB
05
F3
F1
FA
F7
0C
04
F3
F8
FE
F8
F1
09
F5
08
F7
F0
F6
F7
F4
F3
FA
F4
09
EF
FB
05
F4
FA
F2
F0
03
00
FF
0B
FC
F1
EE
FE
F0
0B
FB
0B
FC
F5
EE
0B
F4
0C
FA
F2
F9
05
0C
F1
F2
01
05
F8
04
FE
EE
03
F2
FE
F4
F9
F9
F0
0B
FA
09
FE
FD
FD
F5
FC
09
F7
04
F2
F2
05
03
F1
FD
07
FE
0D
EF
08
EE
02
F9
F9
FD
FD
EF
F5
00
F6
FF
FB
05
FC
07
FB
F5
FF
F7
01
F6
FF
FB
FA
F1
F8
0A
06
F9
FF
01
06
07
F7
FB
07
FF
F4
F8
F7
EF
F1
0A
01
05
EE
06
02
EF
F6
FE
F5
09
07
ED
F7
09
FB
F3
02
F0
02
F7
FF
F6
F9
F7
02
EE
05
05
F3
07
09
F4
FE
01
FC
07
F9
F9
02
06
0C
EE
F9
F8
FA
FB
F5
F3
F5
F5
08
0A
F5
0B
05
F4
04
FE
0A
FC
F6
09
F0
05
F2
F8
FC
F0
F4
F8
FD
FE
F2
0A
01
03
03
F4
FC
F1
0C
FE
EF
FF
F3
EF
F7
FD
03
F0
FC
F9
F8
04
08
00
F6
02
F6
FC
07
FD
0E
0B
FC
F6
F5
06
F9
EA
EB
F9
04
02
03
03
02
0B
EE
0C
F3
EF
FB
ED
F9
F8
05
F8
06
04
01
00
F0
FE
F0
F2
F6
00
05
FB
07
03
FB
F4
F5
ED
06
06
01
00
07
F9
F7
F3
F0
EF
F6
EE
F6
FB
F0
F4
F4
04
00
F0
F4
04
05
FC
FE
F7
FF
00
F6
08
F3
FE
F0
F8
F6
F1
0C
F2
04
FD
01
F8
F0
F4
FF
F1
F0
04
04
FE
F7
04
F6
F2
0B
06
01
09
EC
FA
0D
F0
F0
F9
FD
FD
F3
0B
07
EF
EC
04
F8
01
03
FB
F0
F4
F3
04
F7
F0
ED
FF
02
F2
F8
F3
FE
04
05
F0
FB
00
F5
04
0F
FD
07
06
F6
09
FA
F4
F3
F9
05
F6
01
03
05
05
FF
F4
FD
F0
F3
F6
07
01
FD
04
F6
02
05
ED
04
08
FD
01
F4
F2
F6
F4
FC
EA
F7
08
F7
F9
FF
F3
FA
F0
02
0B
FC
0C
EC
F0
FA
04
EA
F6
EE
FA
EA
EB
EE
F4
08
01
F3
05
F8
FE
EF
F2
F5
EC
F1
FF
F9
EC
FD
F3
EE
0A
F0
F0
00
00
F9
09
F4
F7
FC
F9
05
F0
0A
07
F6
F6
01
FD
F1
0A
03
04
FF
ED
F6
F4
02
08
FE
F0
F5
F7
EF
06
F8
F4
F5
F3
F4
FC
F3
F2
FF
FD
EB
02
FF
02
FF
EF
F1
08
04
05
00
09
04
EB
FE
F3
F2
06
F6
F4
05
03
05
FA
04
F7
F4
F6
09
ED
F2
09
FE
05
F8
0A
F5
EF
EA
ED
03
0A
01
FF
01
01
09
F9
02
01
03
FD
0D
F6
F0
F2
F8
FE
FC
FA
04
08
F6
F8
F8
F7
F3
FA
09
EC
FC
FF
F9
F8
F1
F1
EA
FF
FE
F7
F7
F0
FC
EB
00
F9
F3
FE
EF
EF
F8
FD
EE
EA
07
08
F8
F3
03
F7
ED
EA
FC
FC
05
F3
F5
0E
08
EF
F0
04
F7
01
FD
F2
04
03
03
F5
F2
FF
06
00
F0
EF
08
0A
06
F6
F3
04
F2
0C
01
EB
E6
E6
02
02
01
E0
E2
FF
13
F7
F2
02
2F
24
FE
F7
FB
1D
1E
F0
0D
0D
E2
27
23
0F
0E
E7
0D
0D
1C
2F
25
24
FC
EA
1D
26
09
FA
E5
10
FF
E3
07
02
EC
E7
00
02
F4
0E
E9
06
0A
F5
02
F8
11
FC
E7
EB
0F
F9
E8
03
0E
FE
02
08
08
17
F4
DD
E5
ED
13
EC
03
F0
DD
F5
0E
1F
00
E7
DD
10
0C
08
0B
14
03
E1
EB
29
16
FA
09
DD
E3
0F
F9
1F
09
0F
02
FB
FF
DF
F9
EE
F6
01
07
1B
17
FF
00
43
05
09
EF
04
E6
E6
03
F7
10
01
F1
DB
19
16
FA
0C
FE
F8
09
07
0C
FB
10
04
FC
F8
F9
EA
FA
08
02
FA
F8
FC
18
FE
15
30
00
F8
10
09
16
FE
08
13
EE
04
12
0E
0A
DD
D2
BF
EA
0E
1D
F8
DE
DF
EC
06
E7
FE
09
F6
0A
11
00
0C
FC
11
FA
0C
0B
19
FC
09
07
F2
F9
F0
0C
03
F8
07
12
00
1E
EE
F3
07
FD
FE
05
0F
0E
F7
F0
18
E6
21
EA
16
46
2F
0A
FA
14
0D
F9
06
25
FF
01
D2
06
F0
FF
FE
FC
F4
FA
01
0B
D3
F3
FC
EA
CB
E2
E9
09
17
EC
B9
D2
EF
04
F0
EF
F3
26
08
D7
ED
03
07
08
EA
13
10
EE
04
F4
FF
FF
F6
F0
F0
F4
0D
F3
FA
F9
D2
E9
F4
F5
E2
E7
F7
0B
FA
09
21
0D
03
02
4C
3D
ED
08
27
11
3A
07
DE
2E
0F
27
0D
F4
13
11
DF
06
0E
18
1B
FF
05
08
0D
FF
F9
04
FE
FE
13
19
22
FF
03
08
ED
19
0B
09
E8
08
ED
EC
FD
F5
EB
DB
D4
07
0A
15
F8
09
04
F0
0A
2E
11
0C
FE
10
37
13
14
12
01
18
01
F9
F4
EC
FA
FD
2A
3C
F3
E6
10
1F
0F
E0
EC
DC
0A
17
F6
0D
EB
E4
FF
FC
06
DC
04
E7
F1
DA
F2
06
F9
06
F2
01
0B
F9
01
F0
F8
0B
04
04
04
FD
F9
0C
F9
FD
F5
0A
FA
F9
F5
03
F5
0F
0D
F5
F2
02
F9
F0
08
FB
02
01
F5
F7
04
F2
FF
FD
F6
0E
F3
F1
F4
07
F1
07
0C
0C
0C
02
F1
02
04
FD
F1
09
01
08
FD
F1
0B
F0
F3
0C
FA
06
07
FC
FC
04
FB
05
FD
F7
F5
EF
FA
F7
03
FE
F4
F4
FC
03
FF
00
F6
F8
FD
04
F1
05
07
F0
04
00
04
F6
07
F5
F8
03
FB
08
FC
F3
F2
FF
F2
0B
0B
07
F3
FB
09
02
00
FD
F6
FD
09
FD
FC
06
F7
FE
0E
01
05
F9
05
F6
11
FA
F4
FB
09
0A
00
09
FA
FF
09
FF
01
07
FF
F5
00
FD
FC
0C
0B
F0
F8
FC
07
FB
FC
FA
F5
F1
F2
01
05
FD
0B
FB
09
FB
F6
FF
EF
04
01
05
06
0B
F4
F0
FF
F7
FE
0B
FF
00
F2
FE
F2
FA
08
FD
04
03
08
03
F1
FD
FF
F8
F3
F5
06
F9
FC
03
08
05
05
0B
01
F7
05
FC
0C
F3
F6
08
F5
06
F4
03
0B
04
F5
04
FE
FB
EF
F4
F9
09
F4
F0
F3
03
F1
EF
FE
F0
01
FC
0C
F8
F1
F6
FD
F8
0C
F2
F0
04
FA
07
00
04
09
FC
F8
F9
FA
F1
0A
04
F9
0A
04
04
06
00
FD
09
03
08
06
F4
FA
0A
FB
F7
F7
F2
07
06
F6
F0
02
00
09
01
FC
07
08
06
08
F0
06
08
09
F8
02
F2
0A
01
09
02
F8
07
08
F6
00
F7
F4
04
F2
04
F5
FF
F9
05
0C
F3
FA
FB
F1
F1
F7
FB
0B
02
0B
F2
F6
00
F2
05
FE
EF
EF
FF
03
FE
F9
07
FF
F7
0A
FB
FD
FF
FC
FD
F8
07
FF
07
03
0A
F5
06
06
05
F8
FF
F9
F9
FB
FC
05
0D
FA
0C
06
F1
0A
F3
F8
F9
FE
EF
F0
F2
F7
FE
08
F0
00
0A
02
01
F1
07
FB
04
10
EB
E3
DA
DB
16
FE
06
17
07
0F
E8
15
20
0E
E0
FB
18
26
00
03
28
11
04
0A
C1
D6
01
1F
FB
E0
CA
E4
14
2F
B0
DC
FC
FD
03
D6
F0
09
12
F8
16
0B
0B
E1
DD
FD
1C
11
F1
06
E6
F1
FC
09
10
D2
FF
E7
29
11
FE
FB
12
02
DA
18
F0
ED
ED
E1
DA
08
1B
FC
1A
FF
10
0D
01
F5
09
21
01
E6
05
06
06
03
04
F5
1C
0A
18
14
EB
FA
1B
FA
F3
F2
0E
1C
FA
DE
14
24
F4
0E
09
17
11
FA
15
1B
05
19
FC
DF
1D
1F
F2
0F
08
01
FE
DB
04
ED
06
0B
E1
F7
08
07
F8
0E
EB
EA
F9
EA
0B
14
E0
FC
EA
FD
FB
18
07
03
C3
D5
00
06
24
C4
F1
17
F8
DE
F1
FB
1E
F5
E6
0C
05
08
DC
CE
D1
08
11
F8
FB
ED
EF
E5
FD
EB
E3
F1
13
01
09
12
01
0D
13
FD
14
0F
0D
0E
F2
F6
0C
F1
12
1A
FA
0D
E6
E3
19
07
1A
F7
F9
F8
17
FD
FE
E0
EF
01
F9
17
DC
BF
FE
E2
E6
16
13
C1
8D
DA
18
12
CC
D7
20
0F
F6
E3
F4
21
0A
19
08
02
EF
F5
F3
D2
0D
FC
D1
E6
C3
FD
03
F1
01
F3
0C
1C
22
23
F9
21
07
13
05
14
1B
1A
0C
EF
E0
09
15
0C
00
F4
07
15
05
E6
01
00
EB
E8
11
FC
1D
FC
F7
E5
23
25
0D
EA
CD
1E
21
02
CF
E8
2A
EF
16
B7
1C
09
12
FB
2C
16
06
1E
03
3E
25
F4
F1
FB
12
13
F7
FD
06
02
16
08
0F
17
FB
1D
FD
18
FC
E4
C7
0B
F7
FB
E2
F1
F5
F1
03
D9
C8
07
E0
14
1B
30
E3
DC
E0
02
06
EE
11
E1
E8
0A
0D
1F
F0
17
0B
10
E1
F3
EE
DF
FC
DC
00
E6
F7
E6
E4
06
EB
0F
D1
21
49
1E
0D
F4
01
F0
02
E7
FD
00
FD
F9
F1
00
00
FD
CF
04
F2
E2
F5
E2
0D
D1
BB
F1
00
16
FD
FB
DE
F3
04
F1
15
EF
04
0A
F3
07
15
21
02
F7
10
0E
03
1D
1B
31
E7
D0
E5
02
00
E3
F3
DA
F9
12
09
02
0A
ED
14
09
0B
1B
DD
E4
F7
EF
E0
02
EF
ED
D4
E4
13
15
09
F4
FA
19
1F
02
1E
24
F9
FD
F8
F2
F6
EE
11
F6
F7
1B
FA
0D
E5
FD
16
EC
F6
06
16
04
EF
E4
FE
1B
08
06
23
E7
FC
F6
F3
05
EC
EC
04
DF
C7
D1
11
1D
0C
EE
E4
0D
20
1E
06
19
F9
04
EA
01
F8
F0
06
E8
1F
01
F6
F5
1B
2D
17
0D
04
FE
FB
17
00
07
09
F6
DF
1F
13
F2
25
08
FB
FF
08
0A
09
EC
10
05
FB
F8
EC
E7
2A
F9
F4
1C
07
29
11
FE
10
17
D8
D1
15
12
1F
F2
E8
F5
F5
00
17
01
DE
F8
F0
0C
1E
F9
E1
F1
0F
20
FE
11
0F
01
0F
01
FF
05
EC
12
BA
E0
D9
DF
18
1F
05
F2
23
05
3C
16
1C
0B
EF
11
0F
3E
DC
0F
26
12
07
ED
0E
07
02
F3
1B
07
EC
EC
C8
FF
ED
F6
F3
02
17
FF
F4
FA
22
EF
15
ED
F0
F5
E3
05
13
CC
EC
B8
D7
F9
05
19
EA
DA
F8
1C
00
11
ED
E4
02
0C
F4
0E
13
13
FC
0B
E7
EE
E7
F2
E5
E1
CD
D1
03
F7
08
03
0E
EC
FC
0A
24
19
05
01
FF
EA
F2
F8
F2
F1
1E
22
0D
ED
08
29
F4
FE
00
F7
01
D3
C5
0A
05
03
EE
F7
18
24
07
07
0C
FD
0D
0E
F5
EE
E4
E9
15
F8
EB
0A
01
F9
0D
1B
07
0B
F8
FA
21
D1
F8
FE
0D
FA
0A
22
F3
FE
20
2B
1D
F0
DF
F4
04
14
FD
02
F5
17
F9
06
F6
FB
DD
09
33
04
03
E2
0E
1D
E6
E3
D6
E7
23
1C
12
0C
0A
E6
26
FE
FA
14
DD
13
03
DF
E9
D9
F6
FE
23
3C
F8
01
0D
33
26
E5
FB
0C
01
03
F5
05
FF
14
FE
0C
0A
F6
17
1B
DB
C2
E1
FD
FF
ED
DB
CA
F4
F3
FA
E9
01
06
E7
EE
FD
16
E5
E7
07
03
00
F6
10
EA
FA
01
0C
08
0D
04
FE
26
02
D9
ED
F3
F6
FA
FE
0D
0B
0B
07
EF
D6
CC
E6
D9
ED
D6
15
E7
F3
FF
0D
10
FE
05
F1
1D
21
0A
06
F5
19
2B
FF
09
11
FF
FD
FE
F7
0C
24
1C
F2
09
E7
0A
0B
06
FE
F0
F1
ED
F1
03
19
FE
E9
09
F4
0E
F1
EF
1B
13
FF
F8
15
39
20
F9
15
F9
ED
03
00
F8
00
05
FE
D3
FD
FA
D7
ED
DF
DD
F1
FE
1D
09
EF
DF
EF
0C
10
0F
05
0B
03
0F
FB
F1
EF
F2
0F
15
0B
EB
E3
0F
0D
1D
E5
E1
F7
CD
F3
0C
F5
FD
E6
04
0E
15
F8
05
17
0A
F6
DD
F2
0C
01
04
06
08
EB
01
11
12
02
F9
1A
15
14
2F
ED
15
E7
0B
1E
E1
F9
E8
2F
23
ED
F8
F2
0A
E4
CD
06
11
FC
0D
F7
EB
FC
08
EE
EC
05
02
01
01
10
0B
10
01
0C
07
F3
F3
F5
F8
F4
E6
E3
F6
EF
20
08
02
03
0C
3B
2F
2D
DC
08
12
21
FE
EB
15
09
0B
21
20
1B
F8
04
1A
07
F1
13
0B
F6
F5
05
0E
0D
17
0E
D2
FB
04
F7
EE
06
1E
02
0D
09
01
F9
F9
F9
1D
1C
E5
07
FF
11
23
E7
00
00
08
1C
D2
08
FE
14
0E
FC
10
ED
E2
15
15
09
02
0C
22
0E
14
F8
0E
19
08
10
03
E9
F5
0C
F6
F4
08
FA
F7
E4
E8
09
F8
EA
12
15
10
E5
F9
E3
F8
FE
02
E0
F1
00
F1
F9
E0
FC
DA
0D
0A
18
E9
FA
02
0D
0D
FB
00
F6
FA
E8
3E
2B
12
1F
20
08
17
DF
12
05
FE
F8
00
F3
FB
DB
EE
F6
ED
FC
FB
0E
18
00
01
FE
F6
FF
EE
F8
F6
0B
FE
FC
F0
09
FE
01
FE
F8
F8
EF
E6
F9
EF
11
17
03
05
EC
06
06
F5
EF
F8
01
02
F1
F4
E6
06
02
F2
FE
FA
F9
F0
FF
EC
09
F6
02
FF
04
F1
FF
FA
F7
F9
F8
03
05
F7
F8
F4
F8
FF
04
00
F7
01
08
FF
0A
07
F7
00
FF
02
FB
F0
ED
F3
0C
FE
E7
01
F3
FC
06
F8
F4
0C
03
09
FD
02
05
FE
0D
FC
05
F3
07
F0
FA
FD
0A
0A
F5
06
EA
0B
06
F9
FE
03
EC
08
01
06
FB
FC
FC
09
E9
FE
FA
F5
E9
02
10
EF
F4
F3
F1
08
02
F6
04
08
02
0F
F2
F0
12
0B
0E
F8
F0
F4
FE
F0
05
F4
F4
03
F2
F6
F4
FE
EF
F1
F7
01
F5
F4
F7
F3
05
FA
01
0A
F2
00
FA
06
FE
FB
F1
09
EC
03
F3
01
F5
02
EE
07
0A
00
07
05
FB
03
F9
FD
EF
F4
F1
EC
EC
EF
FB
F7
FB
FE
F2
01
ED
F3
0E
FB
06
EF
02
EE
06
F0
07
F0
E9
F7
F1
06
FC
F6
F4
F9
0B
F4
04
F4
07
F5
F4
F7
F7
F6
02
F0
FE
F0
F4
FB
FD
FD
FA
F4
EB
FD
03
0D
F5
F3
F1
02
F9
07
FD
08
EE
0E
F0
F6
0D
F5
F7
FA
03
FE
ED
F4
04
EB
EC
F5
FE
F2
FE
F8
02
F7
F0
F3
EB
F2
F1
ED
EA
F0
FE
F0
03
F5
FD
F2
07
00
FF
FC
FB
F8
03
FC
FF
08
09
02
0A
08
EE
FD
02
19
F4
09
F5
06
E9
EE
EE
EA
F9
EA
01
05
F6
FF
FE
F9
F4
EE
EA
FE
F2
01
FD
F1
F6
FE
F6
05
F6
EF
EC
FD
EC
FB
09
F6
0A
05
01
03
F4
00
EC
04
08
01
F2
FD
04
FC
FE
F7
F7
FD
07
ED
F4
02
04
FE
E8
FB
FB
FF
0D
F2
FA
F7
F3
EF
FB
E9
F1
06
01
FA
FC
F7
01
F4
05
00
FE
F6
F2
04
19
EE
15
E8
1A
FF
FD
00
EE
E2
12
11
01
FA
E3
16
20
0C
F2
1C
13
F8
FD
DF
F3
E7
E5
F8
16
0D
05
F6
07
1C
EC
FA
15
1B
F6
14
F4
14
11
0C
02
02
E6
B1
C8
07
09
03
11
F0
0F
11
FF
0C
11
2D
F6
E5
0D
18
FE
EB
F7
0B
E0
12
DC
B9
A5
B8
F5
ED
0F
FD
FA
F7
F7
05
EE
04
ED
FC
E4
ED
F4
FB
08
05
02
FE
F0
FA
19
06
05
03
FD
1D
F2
09
FC
18
0F
04
05
07
E0
02
09
F7
07
EA
05
F2
E7
16
FD
FD
06
FA
17
15
00
FE
18
F6
08
0A
0B
FC
FE
F2
08
02
F8
09
EC
B8
DF
04
BE
D9
06
09
F5
0D
EC
E5
D0
E4
F0
FE
11
E3
EB
00
F2
22
24
0C
01
09
28
1B
1B
03
D2
D1
E3
07
ED
FF
02
0D
14
F8
FD
06
EB
F3
FE
16
F4
06
10
17
01
EC
F2
08
02
0A
E6
F3
F1
F9
0A
FF
F6
F3
0F
F0
E1
E6
1C
0C
E6
3C
FD
FF
ED
D5
20
28
E3
FC
E4
1A
2A
1B
26
13
01
06
08
E8
02
04
F4
F9
10
13
04
2F
17
18
0A
F9
F8
26
F8
CF
CC
04
FF
FE
02
E8
13
E3
01
F9
06
F6
F1
10
06
E6
FE
FB
F8
F7
09
11
19
0B
1D
1E
14
02
F3
F6
F9
FA
06
02
0C
19
FD
03
FA
01
F4
F4
FC
E8
DF
E2
DE
F6
13
17
0D
E1
DC
F6
05
1F
14
F0
09
EE
DE
14
18
F3
E7
01
20
F5
02
2A
2B
45
13
F4
F7
02
21
F4
05
04
EC
E6
D9
1A
00
14
18
F1
FD
21
0E
F5
1E
EA
E3
F5
04
0C
E0
D8
EF
ED
16
12
E7
FF
02
2F
FA
1E
F7
F2
07
1F
1A
08
15
EF
16
FB
0F
10
D8
E8
E7
EC
FF
14
F8
02
DE
FF
EE
EE
0F
FF
11
F4
06
13
F4
2C
08
04
EE
DE
EE
F1
EF
04
05
15
F8
15
00
DC
CB
E1
01
0E
09
D3
F8
F6
FD
09
0F
F7
F5
03
07
ED
ED
22
24
FF
EB
FC
0D
36
2F
2A
0B
0A
39
14
1E
1E
14
24
04
BF
CF
07
10
FA
0D
07
07
16
FA
02
EB
03
FF
0E
F9
14
D4
0E
08
FA
F2
FE
16
F9
FA
0C
07
F8
F1
08
F4
E7
08
F3
02
03
FA
EE
FE
2D
F4
19
07
1C
F3
CA
22
22
01
F3
E5
00
0B
04
18
0F
05
11
E8
EF
E8
F3
03
FC
CF
DB
F6
23
1B
BD
EE
0B
18
2D
F5
1A
F4
1F
21
1A
F2
0F
05
14
13
03
EA
10
03
0A
06
FB
EC
F4
22
05
04
23
F6
07
0B
EE
FE
03
F9
0D
06
FE
EA
FD
03
E5
13
0B
08
F8
E9
FA
17
01
1A
ED
07
0E
13
0D
0F
05
03
EC
ED
F6
F5
F6
06
E6
D4
ED
11
0C
13
E7
DF
00
DC
E9
E7
08
FB
E8
EC
27
08
0A
0B
10
EE
1A
03
13
1B
05
F7
CE
E0
F0
0D
0E
C6
0E
6E
0A
09
F5
2B
56
09
1A
FA
EE
11
F8
06
00
03
09
D9
FA
0F
13
13
CE
15
04
01
11
F3
09
02
DE
FE
F7
EE
F2
F4
EE
EE
F1
00
EE
EF
13
1B
F3
DC
E8
1F
22
FB
D7
C8
1C
12
FC
FA
06
20
0C
E8
0A
0D
0B
29
F3
E3
E3
0C
12
FE
EF
FD
00
FF
04
09
0A
07
08
F8
D3
EB
07
E7
FB
EF
09
03
FD
04
12
0C
0C
2F
24
1B
0A
17
30
0E
10
06
E2
01
FF
F5
0A
EB
08
F0
F7
01
00
16
27
1A
E2
E7
EC
F1
06
0F
F2
E1
EE
06
15
0B
FC
EF
FA
F1
FC
F3
07
F9
04
E4
F3
06
F3
F3
05
0C
26
24
13
E4
0A
01
03
1A
FA
10
F7
06
14
01
00
01
F9
F3
F5
EF
F5
FD
07
1B
19
06
F8
E6
FC
04
F2
D4
00
F2
10
13
F9
13
F5
D8
0B
06
E4
00
EC
0D
E0
E0
10
0C
0C
0C
F7
F7
F5
1D
06
15
E4
EC
F2
17
10
D8
E4
01
14
EA
D5
1D
11
F4
E0
CB
DA
F6
E5
F3
F1
F1
E6
F2
1B
CF
FB
00
F2
01
E2
E6
0A
11
0A
FC
1C
2C
07
D8
DA
EF
FA
1A
05
E6
FE
F6
09
11
EB
F4
DF
FC
1C
F4
EA
0D
20
FD
06
0A
13
EB
DD
F7
F2
EA
FE
03
F6
EB
FC
0A
06
D5
06
F4
EF
04
FD
02
1A
18
07
FD
F2
00
F7
F7
D7
EE
02
EF
F5
ED
F9
0C
E9
F8
F6
16
ED
02
22
E6
EF
12
0D
14
F0
11
24
F7
01
D5
F2
09
FB
1F
EE
E7
E0
09
0A
F0
D4
FF
0A
E6
1F
0D
13
E2
DD
19
FE
E8
EF
E1
D4
F9
FF
F2
FD
E9
DA
01
00
0B
00
05
E1
E1
E2
04
FD
03
E1
C5
20
19
F8
E1
D0
EC
DE
03
11
08
03
F8
F7
08
0E
EA
07
02
F5
F4
05
F7
FD
0C
FD
0C
1E
0E
F8
FC
DC
E0
0D
FC
14
F4
09
FF
FA
DC
F3
F5
14
D7
E5
F4
24
15
FA
DD
10
E6
D9
D9
D7
D9
26
09
F4
0A
03
F7
E5
1C
05
2B
0B
D0
F3
19
25
1B
04
01
10
FD
08
F8
F0
F2
CE
D9
FD
FA
00
E8
D7
F7
FF
14
F5
FD
1A
0E
16
FF
09
F1
1F
F8
F1
E1
06
E1
D7
E6
EE
F0
FA
2D
F8
E6
F8
11
0F
01
05
14
09
04
F9
07
F2
0C
F8
F6
11
2C
FB
EA
01
08
1B
E8
F0
0A
F2
FE
E7
F6
F2
DC
00
1A
F3
DF
F0
ED
04
11
FF
FB
15
10
04
F0
EA
04
14
1B
00
FA
FE
16
24
13
03
EE
E9
DC
11
1B
FD
E2
BF
0B
0B
0C
F6
BF
E7
0E
07
FC
FF
EB
E4
E9
FA
14
EE
19
F7
F2
F6
FF
EE
08
1A
0B
F9
F4
E5
EC
DE
01
EC
06
17
F9
CE
E8
E3
F4
EA
16
23
F7
05
1D
20
08
E8
03
ED
EB
FE
07
E1
E2
FE
F7
00
F0
01
08
ED
05
F9
FD
F8
00
02
F5
EE
F6
05
EF
05
FB
F5
FD
06
EF
EF
F3
0C
EF
06
07
00
0B
FB
FB
02
F1
08
F9
F1
02
F1
09
F7
09
FB
F5
F8
FA
04
FF
F7
F3
EF
0C
00
FC
07
FF
FF
F5
F3
EE
FB
FB
F6
09
FE
02
F9
F7
F8
FE
F9
F4
09
07
0A
0C
F6
06
F6
0B
FA
F4
F6
FD
F0
FE
00
F2
0A
F7
09
FC
0A
0E
F4
01
05
FF
EE
F9
FF
F0
0A
F6
F7
02
EE
05
FE
02
F1
EF
F0
EE
0C
F9
01
FD
F5
EF
F2
02
FB
03
05
FC
FE
FC
F5
07
F0
FD
0D
FA
01
04
F3
03
FD
F6
ED
05
F7
0A
0D
FE
08
FA
05
FC
F4
F8
F5
01
FB
07
01
FC
FC
07
F3
0B
FD
01
0D
F1
06
08
0B
05
FA
F2
07
04
0A
09
F8
08
FF
EF
FF
F6
F8
F7
EE
F2
08
F6
FC
FA
07
05
FA
01
F8
FF
F6
F5
F7
EF
F5
03
FA
EE
EF
F5
05
F3
FD
05
EE
03
01
09
04
F7
0B
FD
FB
00
F1
08
01
07
01
F1
06
FD
09
01
FE
03
09
03
09
09
F0
F3
F4
F3
06
06
FE
FC
F2
F2
01
00
05
FC
03
02
F7
0E
FD
FE
F5
09
0C
03
F3
F3
F1
FF
06
F5
F4
F5
02
06
F4
F4
02
06
06
F8
FB
F5
02
09
FA
F1
0A
03
02
0B
F9
FB
00
08
03
FE
09
00
F7
FC
0E
F3
0D
F3
F4
EC
05
FE
F1
FE
08
08
FC
FE
F7
05
02
EF
07
06
07
FF
F9
07
EE
F1
FC
01
FF
FE
03
FB
F3
ED
F8
04
F8
F8
F8
08
04
F9
FF
F0
00
F6
03
02
00
FD
07
FD
04
08
01
FB
F2
F9
EE
FB
F5
09
EE
F0
01
F2
FE
F4
FD
06
0F
FE
F3
FD
FE
FE
07
F8
09
EF
05
F5
F3
08
05
FF
FE
F6
F6
FA
FB
0B
01
FB
06
F2
00
07
FC
02
F0
08
20
17
D9
0C
07
FB
D1
D4
13
06
01
08
13
16
E7
22
16
19
F3
F7
15
E6
E4
FD
08
EE
FD
EB
0F
03
D0
EF
E4
FB
E1
AD
D2
07
0A
0F
E2
05
FB
FA
0B
18
0B
EB
08
13
F0
09
10
04
0B
F6
F1
F3
02
0A
F1
1A
02
13
05
29
26
F2
F2
FE
E7
EE
EA
0F
20
0A
06
08
1F
FB
F0
10
F4
FC
FB
FD
08
02
03
1A
03
13
1C
E9
EB
24
1B
01
04
FB
FF
0E
13
0E
F8
0D
04
08
F1
05
06
CC
E4
FC
F2
28
02
CD
05
0D
F7
C4
CB
FB
10
F8
F1
1E
01
F7
FA
09
1E
F4
17
32
12
14
00
F1
BA
06
00
13
10
D6
05
1D
F3
01
06
F5
F3
F6
00
E7
0D
F9
ED
FF
E9
02
25
F4
F9
E4
01
0F
EC
EA
E7
EE
F6
15
03
ED
11
1A
0F
01
02
0C
08
0E
E3
FC
03
0B
12
09
FB
0F
03
1D
E4
0A
01
0B
07
F9
EC
02
F2
10
19
F4
FF
FC
DF
D4
12
0D
E7
D6
D1
2D
F9
BE
E2
D6
F7
F3
D0
F2
E3
03
E6
CC
FC
F7
CA
DC
DB
EC
EA
D9
F6
ED
16
F8
E1
D9
09
13
F3
EA
0F
20
0D
F1
DF
0D
0F
F3
0A
EE
F3
FF
FB
0E
D4
03
12
17
10
07
21
11
F4
02
18
15
FC
F4
14
F8
08
16
FF
ED
0C
12
FE
17
E9
EC
F5
FA
10
FF
12
37
09
F7
F3
23
12
EE
E7
FB
0C
1F
DD
CA
F5
FE
DF
F3
C8
F2
1F
FA
FD
07
E9
32
EA
EF
0E
0A
FC
E9
E7
EB
07
F5
08
FF
01
09
10
13
2A
F3
F1
01
01
08
0F
0D
04
FA
FB
FE
EE
0A
06
0B
1F
26
FA
EB
E5
07
05
E3
E0
E6
FC
DD
FA
E8
EE
F5
FF
F5
E8
E5
E6
10
16
14
15
FD
1F
F4
D7
E1
FB
EE
21
25
FA
01
0F
1B
15
FF
F6
E6
06
07
12
13
09
13
0E
07
0C
18
FB
E4
01
F9
DF
0C
19
2C
13
FE
FE
E4
08
05
17
E7
DC
FE
1D
FC
02
07
F9
00
09
D3
D5
E3
DE
FC
00
EC
E7
E8
06
F5
16
F4
DB
E3
E3
10
F8
F2
E4
09
FF
00
EF
E3
EA
0C
06
15
0A
03
09
0A
F2
EC
F5
E5
C5
EE
F7
F5
F8
E6
16
03
0E
14
05
02
FC
04
F1
F5
D9
0B
F9
FB
11
06
DF
0B
0F
FC
03
F3
FD
FE
E9
1C
1F
EC
D3
EB
23
19
03
F9
16
04
0D
10
16
EA
F0
21
F8
F7
FC
0E
19
EB
D0
06
0A
19
F8
1B
27
02
04
FB
FF
FF
EB
E2
FF
EA
07
F8
F9
EB
E7
FB
F3
F3
12
F6
0E
01
02
25
03
F0
15
F4
F2
FE
11
00
04
FF
E9
E8
F7
08
FD
20
EF
E1
E4
13
FE
F5
F2
E4
17
20
05
F1
EE
00
E7
F1
EA
21
12
FC
F8
00
07
E6
00
07
FF
F0
FE
11
F7
F3
FF
14
11
FB
12
F7
09
04
04
14
F6
FE
03
ED
D3
E8
DE
DB
F9
0D
ED
EB
EE
08
09
E8
0B
09
12
FE
FF
DA
DE
09
12
18
C6
CE
F7
15
17
DF
27
15
F6
01
17
13
10
E3
0A
20
1C
F6
DC
12
EA
E1
FC
E5
F2
12
09
FD
08
14
0E
07
0F
18
19
EA
E3
E3
07
FA
ED
D2
00
2D
FF
DC
F7
F6
01
0B
18
F9
04
E4
C3
12
11
12
D6
E7
ED
E9
E4
FF
09
FB
EE
0C
27
1D
0F
FC
F4
EF
00
19
F7
FD
ED
18
03
D9
00
04
16
E8
0E
1B
08
EA
EE
33
EF
00
ED
FA
EF
08
1A
1F
0D
F5
F7
FA
22
FB
0F
01
F8
E5
07
00
FA
0D
F6
0F
F9
FA
EE
FC
E3
F0
F5
01
05
E9
E6
E9
F6
08
07
FE
E3
D0
EF
1D
23
E2
01
08
12
F1
FE
0B
0A
EE
DD
FC
17
F8
08
05
FB
0C
05
0B
07
0F
18
0F
18
08
F3
10
FD
FB
00
FF
F6
FB
FB
F6
10
FC
F3
18
0F
19
0F
F0
FD
00
18
00
F3
F4
04
13
03
EE
04
0A
03
F8
EB
17
FF
DE
E6
EE
F5
02
D5
CD
DD
0B
33
F7
E9
0E
0E
12
F8
FB
22
EC
18
F7
F5
1B
EE
04
DE
EB
D7
F3
E9
EC
E8
CD
05
09
FC
ED
05
E9
E9
E1
0A
10
F7
1D
FF
F2
0A
E7
25
04
F0
E5
E2
0F
0C
F3
DB
07
FF
0C
F7
FD
FC
08
FB
0C
09
01
F4
F6
F8
F1
1A
0B
08
F9
14
08
17
14
FD
06
F1
01
E7
2D
04
F9
07
17
1B
E7
05
07
10
F8
F2
0C
25
0C
EB
D9
15
1D
27
ED
F2
D7
F7
FD
0A
F2
0A
19
EC
F7
0F
09
14
18
23
1B
05
04
F5
00
EC
0E
FD
DE
F8
FD
FF
EC
F5
08
0C
F9
F0
E2
F4
17
00
FE
F7
06
1C
06
16
D8
EA
06
09
F7
E0
F7
03
F4
03
12
F7
12
0B
FD
E7
0A
07
02
F8
06
00
0A
14
00
06
ED
E0
04
02
26
11
06
0E
F4
32
F6
01
08
01
26
00
05
19
16
36
1E
14
E6
C8
CA
E9
FD
F3
EA
EF
10
F6
EE
F8
F7
3A
1C
FD
F0
12
14
18
1B
06
FC
14
00
EE
0C
16
F9
0D
F2
14
09
11
ED
E4
FE
FA
15
F6
E4
FD
ED
00
E2
0B
0E
16
FD
CF
FB
08
FE
F9
EF
F8
08
FA
F4
D6
EB
F6
0D
DA
DB
FD
F8
EC
E7
11
F7
EE
0C
FD
17
13
08
05
F7
2E
00
1C
07
FE
12
EF
F0
16
13
EA
E9
29
F8
01
14
FA
1E
10
10
23
F9
15
19
F0
E0
E3
05
13
F3
F4
E5
09
00
FB
F6
F7
06
0A
1A
2B
F2
FB
EF
08
1A
EC
ED
E0
E2
F1
FB
FC
DB
EC
F1
F5
08
FC
0C
07
F5
16
1A
1D
32
FC
1A
F9
1D
16
F7
DB
03
09
FC
F9
12
2C
38
ED
EE
E3
13
1F
EB
DE
05
FD
1B
F0
E9
EE
0C
19
14
FD
0D
06
0C
FD
03
06
04
08
F2
02
07
F6
F1
F6
00
08
03
02
F7
F6
EE
FB
F9
F0
1A
12
0E
F9
F9
F2
FA
FE
02
EF
00
F3
03
05
EC
ED
FC
F7
E9
EC
06
FF
EE
F1
04
EF
02
FC
EE
05
F3
07
FB
FE
F5
F0
04
FA
03
0D
F9
FE
02
F3
01
F3
05
F2
F7
FA
FD
03
FB
F9
05
0A
F0
F3
EE
00
09
FB
05
EC
00
04
F3
F3
F8
ED
0A
F9
0A
EF
0D
F3
EB
06
04
F1
FC
EE
08
04
F6
08
0A
06
FB
06
FC
FB
F2
F3
0B
F3
F2
06
FE
EF
FB
EF
FB
04
F1
06
F4
FD
FC
F8
FF
F9
F2
F3
06
FF
06
04
F5
F4
0B
00
01
F6
F3
06
F5
F1
F4
F4
FF
EC
FA
F2
FB
FA
F8
06
F9
02
07
05
FC
F7
F5
F3
09
ED
F3
03
FA
F2
09
FA
04
03
F6
EC
FB
F1
F5
EE
01
EF
04
08
02
05
FC
05
0A
FD
FE
02
FC
07
F8
F4
E9
FD
F0
EA
0E
07
F6
04
FF
0C
04
05
F7
FF
F1
EE
FD
FA
03
FD
05
0F
FF
0A
F3
07
02
08
0A
F9
02
F4
04
FC
F5
F7
FF
0B
EE
05
01
EC
05
FD
08
03
03
03
F3
07
00
03
00
F9
03
F7
02
02
F0
01
FB
EC
06
EF
FF
F0
F5
0A
FE
EF
03
F5
F1
04
E9
F3
F2
07
F5
EC
03
01
00
F6
EB
F5
05
F2
EE
F9
FD
F7
F7
EE
F5
0A
09
F9
02
06
04
FC
ED
11
EB
FE
08
FA
FC
F2
01
FD
F1
EE
FE
F3
0B
F6
EC
00
02
FC
F7
F3
00
0A
FF
F6
F7
00
07
08
0A
EC
FA
FD
00
FD
F4
FA
05
FA
02
07
FC
F6
07
F7
12
FD
0B
FB
FF
06
F5
F4
F8
EE
F4
11
03
FF
07
F4
07
FC
08
06
FB
EA
08
F2
01
FB
05
F5
F9
06
0A
05
F3
04
0D
FE
FD
04
F5
01
FD
04
F2
0A
FB
03
05
06
F0
17
51
24
17
0C
06
FF
EA
E7
F5
D9
05
F8
F8
E7
09
08
FB
EF
F9
06
D9
FD
09
06
05
DE
07
19
1F
E1
0B
0B
16
F7
EE
E8
DC
FF
1F
07
FE
FF
07
04
FD
F4
F6
FE
1D
F8
E0
FE
FC
0A
DC
E3
EE
ED
02
11
10
F9
24
0A
FB
04
0F
FA
F9
D1
ED
02
FD
12
FC
0E
11
0E
32
13
0A
1E
03
2E
08
15
F8
18
1B
0A
14
FB
F0
FE
0B
0B
F6
EA
04
EF
20
15
22
09
FC
0A
06
31
F5
13
00
05
E8
F0
10
09
E0
EA
02
F8
EE
DA
F2
0F
ED
00
F7
04
0D
19
0F
03
F8
06
FA
1F
EB
F0
09
CF
1A
F5
02
02
BD
17
04
FB
F7
EA
E9
F4
FC
08
E4
F3
E9
E3
01
02
08
1C
11
0B
F3
FB
0E
15
16
DC
ED
01
0E
19
F5
FC
01
01
02
F6
FA
0C
F7
0C
0F
06
05
F9
00
23
F3
00
03
FC
E5
0B
04
0D
06
EC
09
E5
00
FC
01
FC
E1
09
24
2B
15
0B
13
14
1C
16
E7
E3
24
F3
FB
DA
0A
D3
F2
F0
E9
DF
F6
CD
DF
01
F6
02
F1
0F
17
EE
0A
E3
F9
11
FE
FD
EB
FD
16
1E
0F
0E
3B
3C
1C
2C
02
18
1D
11
03
01
10
03
E3
0C
0B
2E
17
E7
F1
F8
0B
FE
F8
FF
08
07
EE
E7
F2
03
11
14
03
18
0F
0C
0E
02
08
1C
F9
0F
03
06
18
F9
E3
DE
F9
17
0F
37
21
FF
09
F3
04
0C
00
00
10
D7
03
F0
17
FF
EA
FB
10
ED
EA
FC
0A
11
F1
F2
D7
E8
F3
FD
F9
EB
D4
E2
18
17
01
03
0F
0F
1C
14
1A
0A
E6
0C
02
01
08
F1
EC
FB
0D
FE
CE
02
02
FA
F1
09
FA
FD
11
F9
F5
03
E8
FF
F5
FB
13
0D
11
07
F6
15
04
FA
12
02
12
05
FA
01
21
15
FB
FD
EF
D8
EC
01
00
FD
F0
F6
00
FA
06
E5
D7
C1
ED
0F
1E
3D
12
13
00
05
39
0B
F5
1E
F7
02
19
25
16
19
11
1F
00
03
17
1D
03
FA
22
11
0A
02
26
0A
FB
FC
07
F8
F2
04
F4
FF
F4
ED
06
E3
DA
C2
D6
F9
F5
01
F9
03
FC
22
0D
14
02
13
E4
FA
FD
0B
F2
FA
1C
1B
F2
11
FE
D8
93
95
FD
DD
F7
FF
E8
FF
E9
F8
F9
EE
F3
FC
05
03
14
01
FC
FA
0E
19
FF
02
1A
04
02
01
F2
F3
E9
E6
FD
0B
FD
DB
EF
F4
0F
00
01
F6
08
01
19
08
EF
FF
0C
06
FD
F7
04
06
0B
10
15
0D
EF
E3
0A
09
FF
F6
F3
09
0C
30
F9
B6
EE
FA
C8
BB
D7
E7
00
12
0E
0C
F8
13
0C
19
17
16
10
05
EE
FA
11
0E
08
F7
17
0F
EF
F2
D7
DA
D5
E0
ED
E9
F5
DE
F4
FC
F6
11
F6
F3
08
0A
EC
F1
00
FE
FB
EB
FC
F8
0D
FB
E9
E4
EC
FE
FD
1E
0F
06
1C
11
14
26
FF
F8
EB
06
17
0C
DD
E1
2A
1A
01
F3
E2
0E
EC
A1
F7
21
09
F5
17
12
0F
0A
0A
06
04
EB
FC
10
19
24
14
06
06
21
04
E2
CC
EF
0B
0F
DE
BB
FF
F1
05
07
00
F6
12
2F
20
FE
0C
2B
16
F4
FB
08
2B
07
23
33
1B
11
09
F0
FA
0B
0E
07
FB
F9
05
FD
06
14
00
F5
FE
F2
DE
FF
01
21
12
0F
FA
D5
CD
02
F7
FC
1C
E9
06
FD
F3
01
F4
0B
07
03
03
0F
FF
02
1A
16
03
06
08
F0
1A
01
19
0A
0C
10
04
FA
F1
13
1D
09
F3
02
FE
F9
F4
E6
F2
EC
EB
F5
D8
CB
F2
DC
E1
0A
06
09
0D
20
F2
01
1A
25
02
F8
F2
F3
05
D9
22
F6
0F
F8
D7
D7
E6
D3
D7
FD
F0
04
07
F8
F9
1D
11
05
F6
0B
04
0B
F2
07
11
01
12
FD
E9
04
C6
B0
FA
12
04
0E
DF
09
10
15
F0
D4
F7
00
F7
F6
EA
F3
01
F6
13
01
DD
0B
FC
F0
EE
DB
0C
19
0D
F6
0F
3C
24
03
E7
FB
2E
2C
0E
C3
F1
15
0F
F8
0D
DE
07
03
E7
07
11
1D
F0
12
13
06
F6
FC
FB
EE
ED
FE
FF
F3
02
16
03
F5
FE
13
0B
0A
1F
F0
F3
0D
17
19
FB
14
0F
03
F9
05
19
F2
FA
16
19
F6
21
EF
E9
FD
E4
28
E8
D0
13
05
E8
FB
0B
0C
10
F9
F1
04
09
ED
E1
06
FA
06
F3
EF
06
10
16
03
D7
FD
27
08
FD
E2
EC
1E
F9
E9
F5
F7
0D
D5
EA
10
00
07
0E
F5
07
FF
08
F0
D6
32
21
08
0B
DB
D8
FF
13
0A
FA
05
18
F4
09
FD
FB
0B
FC
14
03
FF
FD
14
03
23
1C
20
00
FE
1E
F5
E3
DE
28
F1
FF
13
0F
1B
10
FD
03
EF
07
F4
F5
F5
02
07
12
10
F7
E4
E6
1B
21
FE
15
FC
06
0F
F7
F8
F9
F5
F4
FD
FB
03
32
0F
06
0E
0E
1D
D9
E5
31
F9
DC
B3
DC
F8
0D
01
FA
EE
07
29
EC
D3
FB
F7
30
F5
FA
E4
DB
EB
F8
04
13
F5
F2
11
00
FB
0A
0B
E7
08
22
00
FA
FD
10
14
F5
ED
E6
FB
EC
E0
FB
DD
01
03
E0
D6
F1
D0
F7
14
11
03
1A
F3
EA
19
F4
F1
EA
F2
0B
F6
07
13
01
05
21
0C
FB
F1
F1
0E
0F
F5
01
01
E9
DB
0F
16
00
F2
13
05
08
10
F9
E6
E2
F3
15
D9
12
D4
EC
03
F5
05
11
FE
F4
F8
0F
FA
F6
F6
17
F5
E2
D9
06
00
1D
0C
08
16
04
10
FF
11
FE
15
0B
00
F1
09
1E
FF
25
09
17
EE
04
F7
0F
17
18
24
E4
20
F3
F3
25
FD
FC
12
0C
E6
EF
E6
E4
F3
0B
00
08
E6
C2
EB
02
FE
F9
FB
08
DE
EA
1A
03
FE
F5
F9
02
E9
DF
EB
12
0B
E1
B3
E8
E4
D8
F8
E4
0B
F7
E8
EE
23
FC
FD
00
F1
20
FB
02
1D
FB
FE
DB
D5
18
41
2A
33
32
FD
0E
28
1A
02
0D
15
15
F5
E2
EF
01
F8
04
E3
10
0A
F9
E6
DC
2A
1E
03
22
31
0E
0F
10
13
02
FD
E9
FF
F9
FB
02
1B
FB
14
DD
08
EE
E5
DF
F4
15
13
0E
11
03
26
0A
02
E1
DB
08
0A
F5
FC
08
F0
EB
17
14
03
04
01
00
F4
08
1C
FD
06
EE
E9
0D
05
17
D4
00
E9
B9
07
13
FA
27
0A
FB
03
F0
0A
FC
F5
0B
FE
09
1A
01
11
ED
F3
FE
05
09
0E
27
28
15
07
19
E0
09
EF
FE
11
DA
E1
08
13
26
F4
0C
13
E4
EA
F5
01
19
F3
06
02
2E
21
0C
07
00
15
F3
E9
CC
F3
F6
03
ED
19
E5
0D
1C
10
20
03
F5
EA
03
E3
FA
FB
04
FA
08
14
10
06
FD
FA
01
EF
08
F6
E1
0F
EA
08
F1
10
00
F2
DE
FF
05
F6
FB
07
18
E2
17
FD
FC
0F
01
F9
F7
0C
10
34
E9
F2
1A
20
27
D2
06
1A
0F
0D
16
3A
03
EF
FE
FE
05
EC
DB
EF
F4
F9
F9
00
FC
13
21
C0
DE
DA
12
0C
E3
E6
D7
FD
F4
F1
06
0C
DF
EC
FF
FB
10
2D
1D
02
F5
FF
1A
11
07
0C
13
16
0E
FE
F8
E9
06
E1
CD
C3
09
E3
03
09
04
03
04
0D
06
FC
F6
0D
08
FF
F3
EC
FD
09
E6
0E
0D
F9
2F
15
26
2E
1C
1B
0B
1D
08
01
01
EC
EF
DE
00
FA
F8
FD
EB
2B
2F
1C
00
FE
25
0E
F7
E2
F8
F7
F4
E4
D6
FB
EA
F8
16
16
25
F2
FE
0E
0C
27
FC
23
04
21
1B
23
03
EE
15
14
07
EC
ED
F5
DD
1B
18
FC
FA
F6
F1
F5
EC
E0
F7
1A
31
EB
E4
01
38
23
00
20
1E
E2
00
F1
15
F1
D2
EE
0A
F9
FC
F4
C9
EC
0A
11
22
0C
FE
12
0D
00
0E
EC
01
FF
FA
E5
05
07
0B
F0
FE
12
F7
FB
05
E4
E0
E0
FB
FF
F8
F4
F0
EB
05
00
2D
49
28
FC
08
11
02
EE
FF
FA
F3
E0
EE
21
03
00
F4
F6
15
0C
0B
22
14
07
E8
2E
24
04
F4
08
14
13
06
01
FB
F5
F9
E9
0B
18
0D
F7
E6
0D
16
0C
1A
0A
01
0B
FF
FC
F8
FA
1A
F5
14
F4
F5
09
17
21
12
00
FD
E7
F6
1A
F0
E7
D4
12
23
EB
F5
08
F6
F1
0B
0A
E2
E0
0A
19
1C
F1
08
FC
02
FA
16
06
F5
EB
FA
08
FB
18
F2
F3
01
14
0D
10
05
09
0F
00
02
F9
FA
0B
0E
16
01
02
01
01
FB
FC
12
F6
EF
00
12
0A
1E
06
18
03
13
02
FF
01
04
F7
F7
F9
F6
15
15
08
E2
18
1B
0C
1E
F9
F5
09
22
2B
0B
02
13
13
F8
F7
12
E8
F6
F4
E4
09
1A
1E
24
0D
02
FA
13
03
F9
DD
E7
FF
00
F3
EB
E6
22
F8
D0
1C
F1
F1
00
F5
0A
0D
F0
E0
FD
17
FD
03
F9
E3
16
05
0A
26
0E
2D
10
FA
E5
0A
0A
13
F8
F3
04
0B
E1
F8
00
E6
00
F6
14
1D
20
EC
01
FA
0B
21
F8
D8
FA
04
07
E6
FD
23
30
19
07
03
FD
09
E7
0A
F9
F2
FB
F2
0E
F7
09
3C
21
F2
F4
08
19
ED
F2
15
17
15
F0
0C
DE
C0
EC
F4
19
DC
DE
C7
D2
29
F6
09
EC
08
08
0F
22
1B
0D
03
03
E9
E5
07
FE
09
0F
11
07
1A
0F
0D
04
E1
03
0B
13
02
F6
F3
EF
04
FA
0C
0A
0A
01
F1
ED
0F
2D
F5
E7
F2
08
09
0B
04
E5
13
2C
17
EE
E5
14
18
F2
FE
CC
04
F8
E7
F6
0D
E9
E1
F4
FA
FD
1E
04
12
1D
0B
1B
00
00
01
F9
FF
05
F5
F2
06
F2
16
08
1E
07
