00
EC
D2
EC
EB
EF
D6
02
F2
13
05
FF
06
07
01
FF
EA
F1
00
FE
F3
E6
FE
FB
12
DB
FA
F6
EB
04
E5
EF
F6
01
F6
BB
E3
FF
FF
F4
C9
FA
14
1C
FB
FA
FD
02
03
FF
12
12
13
F9
0E
0C
07
FF
05
12
F3
F4
FC
19
0E
00
17
0E
06
01
02
02
FB
1C
16
16
0A
F2
0D
00
0B
02
FC
F3
E0
07
14
04
F5
0D
10
14
07
03
17
1E
04
F4
F1
12
03
07
F0
F7
FC
12
FF
EC
D9
09
FF
E1
FE
F0
1F
17
03
13
1A
08
F0
F2
EA
20
02
FE
07
0B
0B
09
03
F4
06
09
23
03
01
21
09
FC
FF
02
15
09
16
2F
00
07
07
02
08
0D
F0
F2
EE
E9
01
0A
F4
14
CD
1D
04
E9
00
FA
24
10
E2
CE
FD
05
04
EE
D2
0C
F8
0B
ED
F9
F6
0C
07
00
F0
02
00
16
02
0B
F7
03
0F
FB
F6
04
F7
0C
F3
F9
FF
FB
FA
FF
0F
05
FD
05
FE
19
08
05
D7
E1
E4
0F
FD
D9
EF
E5
F3
F8
D2
F2
E4
17
FB
E8
17
09
EF
D5
F6
17
F7
CF
F8
07
DE
EA
00
0A
12
E5
DB
13
0B
10
EC
E2
D2
E4
EA
D0
E2
15
FB
F3
EF
02
21
16
15
07
FB
0D
F4
1A
0D
13
F4
DD
E9
ED
1A
08
0A
06
F2
F8
12
08
03
05
E6
10
F1
F3
F7
FB
09
04
02
0D
F8
03
EC
08
06
17
19
1D
E9
F1
12
0C
FA
0F
ED
F9
0D
E9
FF
10
F5
F8
DA
F9
FB
0A
E8
EC
0B
F4
07
09
FF
14
0D
2E
13
2C
20
11
1A
11
17
FE
F4
09
25
06
06
EC
DD
1C
15
0B
09
D8
0A
05
FE
0B
0E
FB
F7
0F
16
F3
E9
EB
E8
E1
F8
04
FF
FA
0D
17
07
14
EF
05
17
F3
F8
02
FD
F4
06
F1
E6
F4
14
04
12
01
09
0D
16
FC
06
FB
19
22
16
08
F8
E7
EB
D8
15
06
18
EB
FA
F3
EB
02
0B
1A
E9
F1
E0
10
02
FE
F4
01
F6
D9
F5
0D
21
22
37
24
1C
19
12
FF
EF
0F
0C
22
08
01
10
3A
00
DA
FD
1E
06
E3
FF
08
07
FA
01
17
0B
08
F4
1E
15
01
0A
19
06
FD
28
01
06
0F
01
0B
06
02
FD
FF
03
02
FD
FA
00
E3
01
E7
04
F1
D9
08
16
F8
F8
0E
06
D7
F4
0A
00
EC
DB
1E
14
07
EF
01
16
FA
F7
ED
15
EF
E3
F0
0D
06
F3
F7
E8
FB
E5
FD
E3
EA
05
10
E9
F3
EC
23
16
04
E9
FA
19
0A
12
11
FF
01
F7
0F
2C
0A
FB
02
F0
04
23
0A
F6
13
11
FB
FF
E4
02
27
17
18
FB
34
1F
05
1C
F2
08
00
F7
0F
06
09
07
FA
05
1E
11
14
FB
E8
F8
E9
E9
12
1E
02
19
12
10
10
12
25
F5
EC
07
10
F0
04
F0
F4
04
FA
0D
10
F9
05
18
14
0E
1A
03
00
15
1E
04
E1
E8
41
1D
FA
E5
07
1A
21
D4
04
EA
EE
EA
01
E7
14
46
2E
FF
07
61
42
0C
F1
FD
31
E5
DF
1A
FA
FD
EE
E6
F9
F9
12
07
0B
00
04
0D
D3
D4
10
E8
EF
F0
FF
15
05
E3
06
F5
10
EB
0B
FA
F5
F3
E5
F0
F1
FC
0A
03
21
FF
01
05
06
FA
F3
E0
01
12
F1
F1
0D
22
0D
0B
1B
0F
17
E6
F5
FF
E3
F3
05
EC
D7
D6
31
12
F9
FD
0C
0F
E0
2C
FE
E6
ED
06
0A
ED
10
02
15
F5
E2
00
17
03
2C
29
1E
04
0D
10
0E
03
14
F5
D7
E8
19
25
30
FC
F6
0F
15
12
19
15
FC
FB
E3
22
2A
20
0E
E4
35
0C
1D
0B
2C
06
E2
38
0C
18
FB
F9
05
0B
E2
15
06
E6
EB
F7
F8
27
18
1A
02
24
F7
FD
F8
EA
C3
EC
06
FF
E9
FB
FF
17
08
ED
FB
05
FF
13
17
05
F4
0B
FE
FD
00
FA
0C
00
07
F0
02
F9
02
F4
F9
03
0C
0B
06
FB
F4
03
F5
09
02
E8
F9
EB
00
F3
0A
09
F0
05
08
FD
07
F0
F2
F2
03
F2
03
F4
FE
07
04
FF
F6
05
0B
EA
01
F6
06
FE
FC
F3
F4
00
01
FB
09
FD
F4
03
F4
0A
FB
FB
00
01
EE
F5
F9
F9
03
F7
03
FA
F2
06
FE
F4
01
F7
FE
F5
0A
FC
0C
09
F1
F0
07
F9
07
0A
04
02
04
0B
FC
09
F2
F0
F3
04
F0
04
03
F3
F2
FA
F5
F8
FC
03
F6
F0
EC
09
F8
0A
01
FC
F7
EF
07
04
ED
01
FC
ED
FD
F9
F7
EE
FA
0A
FB
EC
FA
EB
FF
0B
05
FE
F5
F4
F1
F6
F6
F7
EE
F3
EF
FD
FB
F4
EC
FD
04
F3
F7
08
FE
FD
08
F7
03
FF
00
FE
FB
F0
F5
F0
00
09
03
00
FE
FB
F0
FB
F0
09
F5
FA
FB
09
F0
0B
05
F3
FB
09
FF
F9
0C
04
07
05
04
FE
F6
ED
F8
05
F3
0C
F3
EC
F0
FA
0F
F3
F2
EB
ED
08
09
01
F5
07
F3
F0
05
07
F1
F7
FB
F6
0A
F5
F9
FE
07
FD
F8
FE
01
03
EC
FD
06
F4
00
FA
02
EF
01
02
F7
05
09
F2
F7
00
FA
F0
07
F2
0F
F1
03
0B
F6
F7
FC
F7
FB
FE
F0
F3
EC
04
01
F9
FA
0C
0B
08
F6
0D
0A
F1
EE
F1
F9
F0
F5
F7
0C
F5
F9
0A
01
FF
F9
09
F3
FD
01
07
ED
FE
06
EE
05
FC
0E
F7
F8
F2
F5
FB
05
0B
F0
07
03
09
FD
F5
F1
04
FC
F9
F4
EE
F4
07
08
F3
EE
F9
04
FD
FC
F6
FC
F5
01
FB
FB
F3
06
F3
04
F7
F2
FE
05
F5
09
FD
F1
FE
00
03
F6
F6
FB
06
FF
F8
05
F0
FB
FE
FB
04
F1
0A
02
F1
FD
F2
EF
FE
01
F2
0B
FD
02
F7
03
FA
0A
00
F6
F9
EF
06
F3
F7
07
10
48
2A
15
FA
F9
F6
0D
F9
EF
D5
DF
10
FD
0A
CA
F4
01
FD
11
DB
E8
08
11
06
DB
04
4E
3C
0B
05
F4
02
1B
2E
13
F2
FD
D7
F1
EC
F1
E3
E4
DC
ED
F9
1B
1B
F5
04
FB
0A
FF
05
F2
E9
F9
E8
F9
DE
FD
03
DB
F3
F2
FA
02
FC
07
0A
1D
0A
17
0A
FD
13
03
0B
17
1D
F6
08
FF
F2
FD
F1
F9
CD
CC
E8
FA
15
EA
09
D6
F9
00
12
F4
01
03
1D
FF
FB
F9
0A
31
FB
D3
EF
0F
15
FC
19
EB
CE
E4
14
1D
0F
0C
10
E0
FD
EC
D1
EE
E9
0C
DE
F6
F8
F7
EE
FC
FA
FC
0F
F2
0B
00
1B
15
F3
08
05
F0
0C
F5
17
F0
00
09
10
F5
F1
DE
F2
0F
F5
ED
E1
0B
0A
22
01
12
02
FD
19
1C
19
0D
FC
02
FB
03
2F
07
02
F2
E2
EF
04
D0
E6
F3
F2
EB
06
FB
ED
F7
0C
0D
0C
10
04
1A
F3
FD
FA
F1
F9
F7
FD
D5
F3
2B
03
0A
EE
01
31
07
17
1C
10
1E
EC
03
15
F2
F0
11
13
17
1F
0C
03
03
00
10
0F
0E
FD
EC
EE
ED
19
03
07
0D
0C
1E
08
03
12
0A
32
26
21
20
12
08
04
0D
E0
D6
E2
EE
19
EC
E2
B0
E6
F8
0E
03
C5
E1
F2
FA
08
03
0B
06
F7
FE
FF
00
F5
0D
1D
D3
F5
01
E6
E0
EE
07
F0
E9
E8
DF
EA
02
08
FB
FA
FB
36
28
1B
06
0C
FD
2F
20
DD
FF
F4
00
1F
E5
01
15
CE
D4
00
F3
FB
0C
FA
FA
08
E0
D3
0B
F7
0C
F7
FA
10
F4
FC
FD
13
08
1A
02
10
02
FE
02
03
0D
FF
FD
FC
DD
0E
0B
FF
11
E5
F6
12
39
10
02
08
DC
08
09
08
03
09
F0
FE
FD
1E
06
E4
ED
1E
16
15
FF
CD
F1
15
CD
D2
F5
04
25
13
1C
2E
05
08
05
1D
00
06
E5
F5
F2
F0
E2
07
1D
F3
05
36
31
08
F1
FA
F5
F4
EC
00
E4
D9
F4
00
05
CD
FC
17
03
07
DD
FA
FC
D8
E5
00
01
10
F2
08
F9
FF
FA
E0
D7
CE
EA
E3
C9
D9
D1
DF
05
03
FF
07
01
18
05
04
F1
F1
ED
EF
DF
FD
D5
CF
D1
FC
EC
D7
DD
03
F6
FA
23
10
27
FE
FA
F9
0F
F5
0B
18
05
FF
01
C7
FC
14
F6
F1
FF
E3
F7
EB
17
21
DF
E1
FD
06
2A
11
12
06
E3
12
F4
FC
DC
E3
FC
ED
01
EE
0D
09
E1
ED
14
30
00
20
1F
27
05
DC
E5
EC
FE
F7
D9
EC
EA
02
0A
01
E1
15
0C
04
FD
15
11
08
0D
01
2B
24
EA
E7
02
F9
FE
0D
20
06
13
EA
EE
EE
16
FB
02
F5
E8
EB
0C
E2
EC
00
08
19
01
07
F5
FD
07
F0
E6
F8
F9
07
E5
EB
ED
09
DD
D5
0C
E4
EF
E7
01
E3
F2
07
F5
0C
03
18
13
10
0E
FA
F2
0D
F4
02
E8
D4
D3
ED
D3
DF
15
06
09
01
18
1C
07
19
2E
07
F4
E2
FC
EB
13
20
0B
F9
06
05
F6
1A
0A
07
17
E3
04
E6
E6
03
D9
F0
0C
EE
0E
EF
F1
FB
10
12
1E
01
18
24
06
F7
F7
05
0D
E5
0A
22
F0
D6
C7
14
FF
F1
DD
0D
05
14
F4
1F
13
01
08
08
05
F9
E9
CE
FE
EA
E5
E8
DB
E7
CC
DA
00
E9
F1
F6
13
2E
08
F3
F9
FC
E3
EB
ED
13
15
08
0D
EC
FF
22
06
1C
E2
0C
FD
04
F8
E3
F9
F2
FB
FD
05
0C
13
21
33
F2
0B
02
0C
1A
04
0D
0F
00
0F
FD
09
FE
F6
F8
1D
19
0D
06
EC
DB
02
03
FD
EF
F1
FC
EF
FB
F9
FF
13
F4
E6
0B
00
17
E1
F2
0B
EE
F7
04
FC
06
10
FF
06
FA
0D
EA
07
FE
F0
02
FA
0B
1A
09
10
06
EB
01
0E
1A
EA
FC
0F
ED
F4
08
F6
C7
DA
E8
05
0A
05
F7
05
FB
FA
10
02
EC
0A
07
02
EA
EA
0F
07
E3
DA
FD
1B
08
F8
E5
D9
F5
F7
FF
D7
DB
DD
1C
EF
F3
2D
1D
17
0E
F8
16
10
05
0E
0E
1B
F4
0B
F6
00
EC
E2
FB
E0
F2
10
4C
2F
FD
FE
11
21
14
10
0D
F9
03
FB
F9
07
F6
FA
FB
F2
DB
F2
E3
FD
F1
E4
23
F2
05
22
23
56
24
26
00
26
1F
1A
18
E4
F5
06
02
0B
02
FA
05
E2
FE
D3
05
18
20
F5
F6
21
FF
43
32
0E
2E
DF
0B
07
DE
00
FB
DA
F7
10
00
0A
27
3F
1A
FC
10
1F
26
10
DF
FC
DA
22
E6
FE
18
FD
16
C6
F8
06
F8
18
21
FB
04
E7
0C
08
F4
FE
12
0E
E5
CB
C5
FA
F7
EA
11
0B
01
F1
0A
FA
2D
EE
F5
2A
D8
F6
09
0B
00
13
09
21
0D
F8
00
1E
1A
18
08
04
03
F1
05
0F
F2
00
EF
0C
F4
21
24
E6
1A
F1
09
C6
11
1A
1A
0C
B7
2D
E6
DF
F5
FB
06
DF
DC
06
1D
FD
F1
EA
FD
FC
F7
EA
E2
E3
DA
D5
C7
D8
0B
FA
DE
D9
04
F3
F8
EF
F0
06
06
0C
00
EB
DD
C1
E5
CC
0F
19
07
17
E4
FA
0D
1C
08
36
29
04
F8
E4
4B
26
EE
DE
FA
E8
FC
10
09
F9
F9
F2
DF
E6
F0
F3
12
0D
F9
21
33
2A
1D
18
1E
25
07
07
08
1F
F3
10
FC
EE
D4
00
FE
1A
FF
F5
2F
03
06
03
F5
08
DF
EE
0D
12
06
F6
0C
FE
16
E7
2E
21
0E
29
D2
FA
FC
F1
E8
E3
C7
CD
DF
F9
19
EE
D9
FC
21
27
FE
0D
F8
0D
1A
12
F8
E1
D9
ED
05
01
D6
EA
E8
DF
EC
E8
11
DF
EE
0F
17
43
0C
1F
F6
01
27
FA
E3
E4
E8
FE
FC
1F
0C
0F
13
CF
FB
02
0E
E7
F2
F0
F6
F7
00
08
17
18
E8
FC
D1
F8
0B
17
09
00
28
03
01
10
0D
3B
DD
FB
0F
07
ED
04
FB
F6
0A
FE
0C
01
E5
54
5F
24
1D
1E
2B
19
F1
FD
E3
01
04
EF
F8
F1
14
EA
F7
1D
33
E9
F0
F6
E7
F0
13
FA
04
EE
EB
11
19
0C
FC
10
13
FC
0D
08
0B
FE
EB
FE
F5
EE
E4
E3
D7
B9
A6
FA
0B
FE
ED
E0
10
E7
F9
0A
F5
FE
11
0E
05
03
02
FB
F1
0F
2F
09
FA
03
F6
C3
0F
FC
EB
D1
F2
FA
04
11
EE
02
EF
00
33
FA
09
02
02
1D
06
EB
F7
12
14
F1
ED
09
F6
0B
1E
0D
17
10
06
21
14
13
1C
F9
F8
EA
13
E6
CA
E7
CF
C0
D2
DC
FB
C6
1B
15
28
1F
0D
1A
18
13
00
FA
0B
FC
0F
1A
16
04
F4
E9
01
1B
E0
E1
F4
DD
FF
E9
E6
1A
06
00
F9
E5
0C
E3
E6
FC
F1
01
FC
0F
FF
FE
EB
17
13
DE
FB
E3
FC
F9
05
04
00
03
E5
0F
22
12
26
1E
02
08
26
08
29
F5
F1
10
F2
DF
F0
EA
10
DF
D0
12
29
23
27
F4
27
11
07
E5
01
14
F7
F9
06
1B
FF
F7
FD
1B
20
DA
D9
F0
FD
0C
0E
10
E3
FF
C7
0B
08
09
0C
F5
25
0E
E7
FE
FA
15
E3
E7
13
FF
F9
17
0D
FF
C0
1D
0B
F3
F3
F9
05
F3
F8
00
26
00
FF
FD
EF
16
FF
FF
12
05
13
F4
FC
F4
D9
BC
FB
D8
10
26
FA
FD
17
FC
1D
D0
14
0D
E3
F3
E6
10
FD
12
1D
07
0A
FE
12
3F
17
1F
12
09
16
ED
18
03
F4
0A
E7
EA
01
F7
EB
F7
F3
09
F3
F9
00
DF
FD
06
06
F4
1A
1C
1F
1D
F5
02
FD
09
0F
00
F2
FA
12
0C
FA
12
04
1A
01
E1
DD
FF
05
E4
E1
0F
1C
FB
F9
E2
30
13
0E
02
08
F8
EF
FB
0D
04
07
0E
EC
00
D4
C1
B6
06
F6
E5
11
D7
CD
FC
FA
F7
CB
CE
FC
00
FF
E3
08
FF
E3
06
CC
07
EC
FE
12
F2
E0
F5
FC
3F
20
00
18
11
E8
0A
04
FE
FF
D6
CB
F1
25
16
E6
F9
0E
FA
05
17
05
EE
EB
05
19
0D
2A
12
0F
1D
12
07
F5
FD
0D
07
1E
1D
14
FD
2C
18
F5
F8
EF
E1
EC
FA
0D
0E
F8
06
0C
E2
07
02
EB
F8
E6
1B
08
00
0B
08
EE
14
0D
F9
D6
0B
0E
F8
E5
12
0E
1C
EB
D5
F6
0A
10
D5
DA
0E
1C
EF
FE
11
FE
29
03
F8
0C
11
01
0C
C7
2A
F9
01
0E
0E
14
0C
F2
0A
1C
F8
14
23
26
15
E5
FD
BD
0B
04
0D
07
C5
ED
0C
F2
05
FE
1B
0D
F9
16
01
FB
FD
EE
0E
0F
0B
0F
02
EB
F1
1A
07
EE
07
F1
FD
02
12
1A
0C
10
34
0B
FB
0E
17
0F
0B
F4
17
14
07
05
F0
FA
0E
00
FD
EE
F1
07
0B
E8
EA
FE
08
00
02
10
F7
EB
D8
FD
F8
E6
2C
F6
C8
EB
13
0B
C6
D8
09
E8
D8
B5
E4
2B
14
E4
09
03
05
ED
F8
F4
EE
F4
F8
EB
F1
F5
E7
D0
F8
0C
06
DD
F3
F3
FB
F9
F6
E1
D1
C8
E6
DB
0E
EB
E9
F9
04
CE
DD
11
0F
01
E9
EC
17
F7
D6
09
0E
FF
DC
04
0B
06
FB
18
02
1D
F9
F6
03
BF
F2
FD
F6
18
0F
06
14
19
24
0C
F2
06
F2
D9
F7
1C
03
C6
CB
F2
0E
FB
0A
D8
F7
30
0D
0C
C5
FE
0F
E5
F3
F9
FC
01
0D
F2
DB
F9
EE
F1
F2
04
25
13
FE
0F
F5
DC
0D
09
FB
F8
F6
FB
01
0A
06
1A
08
12
05
1C
2F
FF
1D
0C
14
13
F1
04
05
0C
EB
00
F5
E2
F9
1A
02
06
F9
FC
1C
0D
01
E5
DA
0B
E7
D6
CB
F5
FA
15
E4
DA
F5
FF
0C
0D
05
01
E4
D9
E7
04
0B
01
CA
0A
16
12
19
0C
F7
F7
FB
F9
F2
FF
08
F6
FF
06
09
06
F9
FC
F9
FB
F5
00
07
00
FB
0C
F2
0C
FB
F9
F1
F3
06
EF
EE
00
03
FE
0A
F4
FE
F2
05
08
00
03
0D
FA
F1
05
FA
0B
FA
F4
FD
F9
F8
0A
FC
FB
F4
F8
EE
09
FD
F3
09
F9
F9
F9
FE
F2
03
F9
FF
07
08
0E
06
0B
FB
F0
04
00
F4
F6
03
02
0C
06
F3
FF
0B
03
04
04
0A
FC
F5
FA
0A
FF
02
0C
FA
06
F0
0B
F4
06
05
F7
0B
FE
06
09
FB
F9
00
F6
F7
00
F7
01
0C
0B
F1
05
F2
0C
F3
F7
05
F9
F1
04
FC
F0
ED
F7
F9
F5
F1
00
09
0C
06
02
01
FE
0A
08
F7
07
09
03
FA
00
FE
FF
00
04
00
FE
08
F1
0A
F8
03
F9
F2
0C
FC
F6
FC
FB
01
04
05
08
F7
F1
F9
FC
F2
FF
FC
F0
F8
05
F2
F9
00
F2
00
00
06
07
07
06
FE
0A
00
F2
0A
09
FE
0B
FE
08
FA
FA
FB
FD
FF
07
04
F1
0D
F3
F8
02
0A
FF
FA
F3
0A
08
FE
F8
FA
0B
07
F4
04
F1
05
F9
F2
FE
F4
F4
F0
F0
04
05
07
F0
F6
F0
F0
F8
02
07
01
EF
0B
0B
0B
F1
F6
F8
0B
0B
FF
0A
01
F9
04
F6
04
05
0C
F0
FB
FC
04
0A
FE
01
F0
01
FB
09
FE
FF
F9
06
F5
06
01
F6
07
00
FB
00
F6
F2
08
0B
F7
03
F6
F7
F0
07
F5
FC
05
F5
F4
06
FD
F4
FF
01
F8
F7
F8
00
FD
F6
09
04
0B
F0
02
0A
F2
0A
F5
07
FA
02
F3
FE
FB
0B
F4
06
F3
FC
F4
09
FE
04
01
FE
02
F6
F8
F9
F4
07
F2
00
FF
FB
FC
01
F8
F3
08
FC
F4
F5
09
F0
FE
0C
F4
05
07
05
07
F8
03
F4
0D
FF
FF
0A
F7
F1
F4
04
07
03
F7
01
F0
FE
FE
F8
F1
F6
FA
FE
FD
04
F4
02
EF
FD
F6
0E
F2
01
03
05
F5
01
FF
02
FA
03
07
F3
EA
0F
E4
01
F2
0F
00
E8
EE
F3
E6
02
F6
F0
01
08
F9
FC
09
04
05
05
06
09
01
12
FF
F5
FC
EB
06
00
EE
09
03
F7
EF
EC
E4
F2
FD
F1
06
05
09
F7
F2
09
EB
F3
03
06
F5
02
00
EF
FA
FA
01
E8
01
04
E8
09
FA
03
F1
FB
ED
05
EF
F1
EC
F9
03
EE
00
F0
FC
F5
02
F0
FC
F2
F9
E5
ED
EF
F0
04
E5
FD
F6
09
E6
F2
09
F7
02
F0
FA
01
F2
02
EC
01
FD
06
F3
EE
FA
E3
FE
F7
02
00
00
F1
F7
F4
FB
E7
F3
F5
E5
FA
F0
F9
F9
FC
FB
F8
EE
F4
FF
FA
FF
EC
FD
FA
EB
FA
07
04
EA
EC
FF
E8
F8
00
F8
FD
07
F6
07
03
FA
07
EB
F5
EA
F6
EF
0F
08
F8
EE
E6
FD
F7
E8
EC
F5
EF
F9
E6
01
F5
FB
F3
08
00
02
ED
F9
F1
FB
FB
FF
FD
E2
ED
00
FD
DF
03
FB
F8
F5
E3
FE
01
10
0C
EE
F9
F2
FF
ED
F4
EC
0F
09
EB
FC
EF
F4
FC
FC
EC
F3
0B
F3
F7
F3
0B
05
02
EE
F7
06
FF
F5
EE
F0
FA
FD
F4
05
0B
02
00
E8
E5
00
F9
05
FF
F9
02
F9
F1
F8
03
FA
FE
01
E5
FE
F9
EA
F8
EA
EA
F5
FF
F9
E9
FE
FF
FA
F1
F3
09
FC
FC
FC
03
05
FB
F7
F7
05
EF
EF
EA
FB
07
F6
F3
EA
FC
FE
F5
F9
F4
02
F4
05
FB
F2
0A
EB
FB
06
0C
F6
05
0B
FC
00
F2
FB
F2
F5
F0
EC
F3
F1
E7
F8
EA
ED
EF
F5
F9
04
F4
05
03
01
F0
FF
EE
FE
EA
F7
0F
02
FD
FB
08
F4
FA
0E
F9
0A
06
F0
04
05
03
0D
00
F1
01
F5
03
00
F0
05
FB
FF
ED
05
F6
F6
F6
E7
EE
0C
F8
F6
F3
F6
F2
F4
EF
06
07
F1
F3
EC
05
F3
EA
FC
F5
20
04
24
30
0B
07
0D
0A
1D
07
0C
14
FA
03
17
00
F6
17
2D
13
01
E5
1D
03
1A
F4
02
1E
25
FA
FA
F0
1E
15
F4
E9
E4
1E
0B
00
F0
1B
18
FF
E7
D9
FE
F8
EE
00
0E
EC
FB
0F
19
03
E9
14
08
0F
07
03
FB
E7
F1
02
F9
05
07
06
E4
D9
F1
DA
F7
F0
E1
03
05
02
06
01
F4
13
10
11
03
FE
08
E9
17
26
F5
01
08
1E
01
00
F9
06
F9
F6
FA
0E
FD
FB
02
05
04
09
1D
0E
03
FD
FB
FC
F1
0A
25
2A
F3
EE
18
03
03
F8
EC
FF
12
0B
0A
EA
E6
EF
01
0C
F6
08
F3
DB
EE
01
EE
FC
FA
FE
05
FD
0A
12
08
FE
0C
0A
F4
06
0A
0A
03
09
26
F7
0F
F3
FC
1D
0F
16
F4
0D
EE
0E
D8
F7
0D
01
0C
07
03
FD
E1
F6
06
FF
02
04
F5
FE
FE
02
F9
18
15
FB
EF
07
ED
00
0D
0D
FD
F8
10
13
12
02
0F
FB
FD
1E
37
16
F3
E0
1E
20
FF
14
EF
29
0A
04
F9
FD
0D
09
0C
FA
22
09
F6
05
ED
17
0D
1A
34
24
10
07
FC
15
F6
ED
E2
ED
0F
03
FD
F0
F8
F6
F7
F6
06
0C
12
14
EC
F7
01
0B
EA
F8
EF
0C
10
15
1A
11
17
EB
F6
FD
FA
07
15
F3
FF
05
06
F8
FB
F7
17
F4
F5
F3
F1
FB
E4
29
FB
FF
0A
13
ED
F3
0D
18
09
F6
F8
11
F4
28
10
F6
F5
1C
03
11
ED
1D
28
1C
0C
12
2E
05
FE
FD
10
0D
06
1A
ED
FB
E9
FC
0B
F3
EE
F9
0E
F8
F6
F9
EF
F3
FB
2B
F3
E8
FB
F1
10
F2
01
07
16
0A
00
07
FB
FF
FF
07
19
06
0F
FA
25
0E
05
F0
E3
FF
F5
E5
F6
FF
FF
F9
F9
FB
11
0F
24
2C
0D
FF
E2
F5
EB
0A
0E
D6
E7
E4
EF
0E
EF
F6
06
02
03
FE
20
1D
19
FD
12
0B
F5
0F
FA
0A
ED
03
FE
F9
F2
0A
0C
08
01
FB
09
05
0D
03
18
E2
07
1A
02
FA
EB
E1
03
EF
E6
E2
00
0E
EF
CE
ED
F6
1E
0F
01
01
01
FE
04
07
F4
06
F7
F7
FB
D6
F6
F0
01
E5
04
12
1C
19
F5
1A
06
F8
05
E9
E5
E6
F8
F7
15
36
12
00
FB
0F
12
15
0C
F5
F0
FF
FC
E2
E7
0C
13
06
EF
01
0F
09
06
07
F4
14
13
03
08
F8
12
06
1D
01
EB
0F
20
29
F2
FE
16
24
DF
FD
FD
07
F3
E4
DB
05
E9
EA
F5
06
16
D9
D8
F4
FE
FA
E8
D3
04
F6
FC
F1
EA
FD
F7
F8
DB
F4
19
17
F3
16
ED
F3
F9
03
F5
E3
DD
E0
D0
E1
E2
11
0F
13
F8
E5
FB
FD
FE
D0
DF
05
02
EA
2B
33
FD
04
FF
02
0B
E7
FB
F7
04
ED
FB
F6
FE
FC
EC
1C
12
EF
F8
F5
06
08
11
F7
FC
F3
ED
EA
EE
DB
EE
DA
1F
FC
E5
E6
F1
16
0F
F0
F6
03
E8
F3
0B
08
07
E5
09
D8
BD
EA
03
D8
DE
E8
EC
EB
CB
FE
FD
12
09
D2
EF
00
0C
04
C9
EB
0C
0B
09
0D
1D
15
EF
FA
30
F5
12
F5
05
11
FA
0C
E2
08
DE
FF
FC
FD
FA
18
13
FA
FF
E9
13
09
06
FC
F5
1B
04
00
14
05
FD
04
1D
22
1A
06
0B
06
FE
F6
1F
00
F1
F1
F9
0F
FE
03
FD
27
0C
04
E7
D1
FD
1C
0A
F8
C8
EE
F9
0E
F6
1F
FE
E2
F3
F6
16
09
F3
E5
E2
E4
EC
F9
F6
F4
EB
D1
F3
02
0B
08
01
EB
FC
06
07
FA
EC
F1
FD
FF
0E
03
07
EF
03
17
DC
E7
DB
D4
E1
E1
05
E7
01
EE
F3
FA
F8
F8
E0
EC
EF
02
F7
06
05
E6
EC
EA
FA
E1
EC
EA
EC
F4
0B
F6
F2
04
07
F2
FB
07
FD
F8
08
18
14
1D
0B
FD
E4
DE
EF
09
F6
C9
FB
FD
04
DC
F3
F3
F7
F2
FA
EC
E7
01
21
E1
D5
F8
01
12
E1
FC
16
38
21
F3
F0
23
39
31
F2
DD
08
20
FE
E9
02
ED
F2
CF
F1
01
01
1F
EF
17
0A
11
F9
18
05
00
0C
03
0B
B7
EC
2D
12
F9
FA
1A
06
18
FA
F0
0A
11
1B
15
0D
06
FF
12
03
0B
04
F2
F7
FE
08
0D
11
DD
C5
ED
1A
F5
E8
D6
FE
07
FC
16
01
0C
0B
F5
EA
0D
1B
11
E9
E7
E6
04
00
10
EB
13
13
FE
06
05
31
F9
11
00
18
17
06
03
EE
14
01
BE
E0
FD
FA
ED
0F
09
07
12
FA
E3
FE
28
19
1C
13
DF
FE
FB
07
15
F6
02
03
FC
00
04
F8
00
0A
FF
02
FC
13
23
FD
03
01
F0
F7
13
0A
03
FC
E8
15
18
FE
12
F7
15
1C
04
14
FA
FA
F4
F9
F9
F0
0F
0B
07
FA
E1
FC
FE
16
04
03
02
EF
12
06
09
FF
0A
E2
E7
02
F2
E7
E6
DC
13
1A
04
E9
FA
15
E9
FB
DC
F7
EC
00
09
04
06
0F
19
FA
F0
04
F9
13
08
E6
EC
CB
F1
F1
E7
FB
F9
0B
F8
FA
EB
FE
FE
D6
FC
01
0D
F5
F9
11
0D
DB
D7
0E
03
EB
E7
E8
EA
05
02
01
E7
E7
03
03
25
16
F7
03
14
EC
06
FD
0E
18
EA
F9
F9
06
14
10
F8
12
0B
11
D0
F6
00
05
13
13
12
0B
D9
F9
E7
13
EC
EC
D8
19
0D
F9
EE
E9
1F
14
05
0B
EE
EA
09
EA
F6
EE
EC
05
05
FA
EA
FC
08
1D
F9
01
FF
F6
F8
0E
19
0D
06
02
00
FF
EB
0C
0D
0B
F7
E4
FF
05
11
12
1A
10
E8
1E
18
0A
29
0B
2B
E7
03
F4
01
F6
EF
CF
12
FA
F6
01
04
FC
0F
F1
F1
F6
02
D3
E4
E2
F3
FB
F2
F2
ED
EC
0F
FF
F7
FD
0F
F5
F4
DC
EE
09
FB
DA
1C
00
01
14
D4
13
17
10
D2
C6
EE
0C
0A
E5
03
EA
15
0D
DC
0A
FC
06
06
DF
EC
0E
FE
FC
09
F2
03
F7
0F
0E
0A
24
18
E0
F0
18
13
EE
E4
F5
FA
26
1B
EF
11
0B
FE
06
FD
09
F1
F3
04
08
CE
EA
0A
F5
F3
F7
F7
01
1A
0A
20
17
27
24
06
17
20
03
D8
F8
0D
00
FF
FB
F5
F0
DF
FD
CB
D9
D9
F8
08
0A
EC
E7
D6
0F
0E
02
13
EF
E5
17
01
F5
ED
DE
F6
FE
D4
F5
07
FD
11
E4
EB
07
F3
26
0E
1D
16
F9
14
0C
FF
08
00
E3
C5
EF
0E
05
0F
F4
D7
04
0C
03
20
E0
18
1C
04
46
FA
F5
11
0A
04
E6
01
04
0E
02
EB
E3
FD
03
F8
19
FF
FB
F6
1F
FC
01
F2
F4
1F
14
F5
FE
FA
15
24
F8
FC
E4
0E
0D
09
16
04
E6
06
12
0A
E9
FC
09
08
08
03
18
F5
FD
10
F3
1B
FC
1E
02
10
F0
EA
09
ED
04
D9
CF
F8
F3
EC
EB
F1
0F
18
F0
15
0F
1F
1A
13
FC
09
0C
F9
04
FA
01
FE
18
FD
1D
22
1D
17
02
1F
22
FC
F1
0C
13
0B
EB
E6
05
25
F4
01
FF
0D
06
E2
FB
FD
01
D0
C6
16
F6
F0
B0
DC
FD
10
FD
D4
C9
F5
0F
1C
0F
01
FD
FF
05
18
F6
0E
0E
FD
E5
DF
F7
24
11
E7
F6
EB
FD
FD
EA
E8
28
16
08
07
EE
A8
CA
22
FD
F8
06
DF
01
F3
05
E5
FC
1A
F6
1A
06
07
DC
F4
F9
02
00
F5
01
02
0C
07
F3
0B
13
10
FE
04
ED
09
18
FE
01
06
FB
F6
05
EB
0D
07
EE
FA
E0
03
F9
FD
F6
E7
01
F5
E5
EC
F6
34
29
08
D8
EB
0A
13
03
09
EF
03
FE
0F
0E
E0
07
E3
13
F7
0B
E0
DC
07
F4
EB
09
0D
1E
FE
F3
17
0E
F4
01
11
14
17
0F
07
05
FE
E4
F9
FC
00
FF
D8
E0
FD
0A
08
1B
F6
09
FC
2B
07
F1
16
0A
EC
CC
E4
21
12
B3
D5
C1
DA
F8
F4
CC
D7
0E
01
CE
D8
0C
13
1C
18
FA
EF
EE
E4
EF
F8
05
10
E6
0D
0F
02
EF
02
08
FD
F5
0C
10
FC
13
12
07
F2
0B
0F
F9
FE
FE
01
F8
FD
12
F5
01
13
03
EE
27
02
FB
F2
05
10
E0
18
19
E7
ED
FE
18
05
FE
F4
1D
0F
09
04
0F
0B
00
E9
06
1C
FA
ED
03
22
00
F5
FA
EE
E4
06
FB
F1
DF
F8
20
E7
ED
EA
13
19
F5
EF
06
10
E8
06
15
10
F7
F6
1D
0C
1A
15
F9
FB
FF
12
21
04
0F
08
F9
07
04
F0
04
FE
F7
EB
05
07
00
0E
0F
0E
11
06
DB
FA
EE
FE
F6
ED
F8
EE
05
FF
E9
C2
06
FA
05
ED
FB
08
FE
07
0E
00
0A
01
07
12
FB
26
12
F4
05
07
F5
F1
13
FA
00
14
0D
1D
19
19
F5
FB
01
DF
F7
0A
F6
D2
B1
CB
F2
F4
FD
F5
D1
F4
F2
E2
DB
AC
F8
1A
FA
F8
05
1C
02
F5
E8
FC
03
F2
F2
01
EB
23
F1
D6
E8
FB
06
15
0A
FE
08
18
F4
FC
EB
09
E3
F3
F5
0D
F9
EE
22
07
FF
E4
1D
18
0F
F8
FB
F4
DC
EF
16
1F
11
0A
13
ED
07
16
F5
ED
10
02
EB
FD
EE
26
0F
1F
29
EF
F6
DA
0A
09
F8
ED
EB
0F
EF
E9
01
07
EE
CD
F1
BB
B7
22
EA
DE
EF
E5
25
EC
0C
10
0B
17
CE
D8
F6
09
15
1C
07
0A
02
17
32
28
11
FA
F1
F2
02
00
13
FF
EE
F2
EB
DE
14
FF
07
F1
C5
FA
F1
EF
E0
F2
0B
F1
01
F1
04
10
07
08
E3
FE
F5
E8
E5
EF
F0
F5
F9
03
FA
E2
0A
01
0C
00
F1
0D
1E
DA
F5
08
FB
15
01
FE
F3
20
FC
04
FE
18
0B
FE
E5
F5
05
05
1A
0B
12
F0
F5
DD
F2
E4
EB
EB
F6
E8
ED
FD
F9
FB
04
08
1F
D9
E6
14
16
19
F0
12
FD
0F
1D
EA
DE
15
19
1F
DF
E6
15
1C
FF
C7
D6
EC
17
F9
F9
EA
0B
16
EB
12
06
F8
E5
0A
FB
04
11
0C
11
DA
FA
0C
21
06
EB
F4
09
FF
03
D5
EA
F7
06
06
1F
34
0A
0D
1A
2A
06
06
FD
12
02
11
0A
F6
F5
F0
18
F9
D0
F7
F4
20
06
E5
F4
FF
06
07
22
FE
0A
FB
09
FF
FD
F3
E1
10
FC
EE
FD
E4
E8
FA
10
F7
E8
CB
16
23
F8
07
0D
FE
06
E8
ED
03
1D
0F
F7
28
1E
14
04
FD
05
1D
08
FA
DA
0F
E6
00
F3
1B
F8
02
F5
ED
05
FA
F7
19
09
F2
0A
05
16
27
F7
10
22
0A
00
EC
07
FB
04
E5
22
1B
09
08
03
FC
04
0D
0A
F0
0F
09
00
11
F8
07
00
04
FE
FB
F5
F7
FC
05
07
FB
06
EE
FD
01
FA
F3
F4
E7
13
F9
13
ED
D2
11
04
26
F4
E7
EF
EB
E2
E6
EF
C0
14
0E
06
07
0A
13
FE
EB
FD
D5
1E
EB
EE
F2
D8
FD
E3
EA
00
ED
F6
F8
15
06
F3
41
16
13
1A
01
15
FA
0B
FB
F1
02
18
03
F5
01
F4
FB
12
ED
03
F6
10
0A
E4
2B
3C
08
FE
FB
DF
25
06
05
12
14
FE
09
EF
16
1C
F3
F9
00
04
E7
F0
12
EE
DB
F3
FD
0A
F3
10
32
FA
EC
FD
C7
DE
0A
16
C8
E9
EA
1C
E8
16
FA
0D
F3
BA
F6
18
FF
12
FF
F7
EA
F2
1E
15
01
F7
14
15
0B
21
0A
14
FB
11
11
01
FC
EF
08
07
F1
E5
19
09
FB
07
19
F4
E3
0D
1F
17
0D
0F
0D
F6
05
E1
EE
00
F8
DE
F5
FF
05
FA
F8
F1
1D
FC
FD
01
0B
E9
D5
DF
F3
09
10
F5
DC
FB
02
09
F5
EF
06
EC
09
EF
06
19
10
D8
04
0C
10
EF
DC
FD
18
ED
EA
EC
D5
03
06
FC
F7
E2
1B
0D
DF
DE
08
0E
13
F4
FD
01
FB
FA
04
D1
FC
39
0D
E7
E1
1A
28
EC
E5
1A
F9
DC
B6
FF
0C
14
03
E5
0B
04
FB
F1
06
F3
F7
FC
EF
0B
C3
FC
22
00
F0
F3
08
FE
0D
0D
FB
FF
22
12
10
01
2C
0C
12
0C
FE
19
FC
FB
10
FF
F3
00
D5
C2
EC
09
1E
0F
E3
0A
14
0E
15
07
F1
F5
FE
03
F3
1E
F8
DC
F7
F9
09
0D
ED
E6
23
01
00
FB
FE
3A
18
16
F8
EC
11
EA
F4
FE
11
ED
BF
D6
16
FB
FD
05
DA
29
0A
F5
12
F0
32
27
00
31
08
EC
F9
0E
F8
F9
F5
02
FF
FB
D7
F5
00
03
DC
FD
EE
1C
0F
03
0B
E8
EC
FA
0D
06
F6
CA
CA
41
22
F2
07
ED
F8
19
02
07
F5
EB
FB
23
09
E4
FE
0F
16
EA
E4
0B
0B
1B
F7
FB
05
FC
05
01
FB
ED
EC
13
E0
F4
F0
ED
D5
C4
18
12
08
F2
DF
0F
F7
01
D8
E7
BA
03
F7
F5
EC
F0
1B
ED
C8
02
EC
04
EA
DB
EB
E8
FC
F1
E8
DF
FE
0B
1D
04
F3
07
19
F4
11
0F
05
02
FA
07
1A
09
E0
00
0E
F9
EB
DE
F2
FC
1B
09
D3
EE
FD
0C
0F
08
FE
F9
10
ED
08
0E
12
25
F6
EC
01
FC
24
F8
F0
0B
FA
09
DE
E6
FC
1C
1F
05
1B
F9
BA
E2
FC
0C
DC
E1
C3
EB
03
F2
E6
F0
02
0E
FF
0B
DB
E3
00
E8
03
05
06
F8
F3
EB
F3
07
EE
11
F1
EC
00
04
FA
06
15
F0
0D
0A
F5
E7
E4
0A
0B
0B
DF
D6
FE
0C
05
13
02
04
EA
F7
F3
EB
09
0B
1B
E3
E7
1B
04
F0
E4
CF
FC
04
F0
E0
F1
FC
E7
E9
F3
FA
CF
DF
EE
F1
E8
00
F6
EA
E9
F0
0A
FD
F5
EB
15
0E
11
E8
EE
FF
DF
F0
FD
FF
F1
1A
48
2C
F8
05
12
29
FD
F0
1E
EA
EB
F5
18
FA
18
1D
00
02
F9
52
32
00
06
02
0E
08
DE
DB
C0
E8
EC
F1
D2
CB
05
FD
EF
06
0F
E7
F5
FD
12
17
F9
01
F4
F1
DE
1F
10
EA
D7
DA
EE
EC
E1
E4
F4
EE
F5
E7
F7
FA
F5
FE
FC
E3
CF
01
F3
0E
F8
FC
F9
D9
09
FB
CA
F1
0A
0A
F9
F4
F0
06
E4
23
1E
FB
16
02
00
F7
F8
F3
F7
E2
EB
F7
2C
FC
D1
12
05
0C
F8
17
1A
E8
0D
20
1B
DD
08
0A
12
09
DE
0C
11
06
04
0B
0C
F8
16
18
F2
EA
F8
FE
FB
F6
05
1A
D5
E7
FD
02
FE
E9
F3
FF
01
0B
1C
08
FD
0A
1B
07
FA
FA
E0
F6
ED
F8
02
E8
ED
E5
FC
ED
D8
F1
F7
FB
04
EB
E9
E8
EC
F9
10
F1
F4
E5
FD
F5
FC
EE
E2
F7
EB
E8
F4
05
07
D5
F1
02
08
0A
12
18
0A
F1
EA
0C
1B
17
29
29
04
E6
F5
19
15
F3
F8
0E
32
1D
07
01
05
EE
E0
07
F8
FD
04
FA
EA
E7
11
15
0A
FA
10
FA
09
07
E3
F6
F9
1A
15
DE
D5
0E
0E
05
E0
FE
10
F9
F4
34
13
12
EE
F4
20
23
06
13
0C
09
FC
F9
0D
07
EE
15
03
F7
E0
F1
16
06
FB
EE
00
F6
EC
09
E2
FB
06
FD
CD
D6
F0
E6
F2
E4
1D
EB
07
FE
FB
F5
01
2B
09
0C
0B
04
3A
09
04
FC
0A
F6
F5
03
F3
F2
F5
E9
10
12
F8
0B
0C
27
20
01
F6
1C
1C
04
F9
E5
1E
26
10
10
0A
02
F6
FE
DE
F9
0F
04
18
EC
F7
0E
F9
04
1C
11
1B
FC
01
EF
07
00
E6
D3
D3
F3
E7
FD
F4
FC
0F
1B
09
29
E9
FE
E5
FA
02
14
FE
FB
F1
07
19
0B
1A
16
0B
F6
DD
F9
04
1C
FC
E8
06
07
EE
F9
DF
06
E9
E6
E2
FD
F2
F3
ED
FE
21
F7
ED
FC
23
4C
06
F0
F6
2C
23
0A
F4
04
0F
E5
04
06
04
1A
3C
15
08
0E
F0
E3
0D
12
FC
FA
FC
F4
F6
1A
25
F0
06
1C
33
E2
E5
EE
19
EF
E4
EE
E4
F0
F8
05
FF
02
13
00
08
0E
1E
F7
FB
08
FE
03
FB
0B
DE
F4
00
0F
ED
07
FB
E0
0C
F4
0D
F0
F1
00
F5
F3
19
0D
FB
F4
0A
24
FF
FC
19
1C
1E
EE
F7
FA
FA
05
F5
F1
04
04
06
0E
11
F1
F3
0E
F9
F5
F4
F9
00
FB
1D
FB
F5
FD
1D
1B
FB
F7
F9
FC
F5
22
1D
21
08
0E
0B
02
30
0B
07
0D
E9
02
08
0C
FE
FF
0B
EA
EC
D9
F0
18
02
FD
E4
FB
23
09
0F
F8
1D
FA
F9
03
25
F8
EE
F6
09
07
E1
EF
ED
F1
E9
E0
BE
F4
EF
03
FB
F8
03
F0
02
09
03
F2
06
0C
1A
EB
EF
0F
20
CE
FD
04
0F
0E
16
09
EB
FE
FC
0E
19
0C
05
10
1E
34
01
F5
29
05
0C
F1
E1
FE
D8
E3
DE
D2
AE
F1
22
26
F6
07
22
1E
07
FD
EA
16
F3
0E
05
0E
D2
ED
04
F8
00
F5
E9
1C
FB
FF
01
FC
F9
05
F1
DE
0D
F8
F0
F0
19
2E
04
F6
E7
4B
30
F3
E3
FB
18
13
F0
01
F3
07
EC
05
F4
FA
FC
DE
EE
01
1A
EC
F0
0C
F8
11
21
1B
04
EE
F4
15
0B
EE
EB
0C
01
07
0F
4B
0A
F6
12
F9
0C
CD
26
F6
E2
FE
F3
0F
F6
0D
15
17
FA
F0
FA
0C
12
2B
11
0A
F9
F5
06
FB
F8
1D
1E
EF
EC
F1
0F
27
E9
02
FD
FB
EE
0F
12
F6
F2
B8
05
19
F7
F6
00
0A
10
0B
1D
28
02
EF
00
28
1F
E1
E5
FF
0B
19
FD
01
F1
F7
06
F8
32
0F
FA
E7
30
20
14
F5
EC
DA
01
0A
EF
FD
F5
F2
0D
01
F3
FE
FF
F3
FC
F4
EF
2B
1F
0D
09
09
17
F0
11
1A
1E
32
07
F9
0F
12
29
FB
FB
22
FF
09
F9
2B
19
DB
C1
E2
DD
01
D0
D7
0D
05
0B
0A
ED
E6
F2
18
2A
FE
F7
08
D8
E9
D3
EC
0A
F8
E7
F4
E9
0A
17
F6
FC
07
22
F8
FA
F6
F8
F7
ED
10
FC
06
D9
D9
ED
D0
E5
FD
16
10
03
ED
07
1F
07
ED
E6
15
35
F3
0A
08
05
24
FD
19
08
08
F8
14
12
04
23
0B
F5
E8
2F
00
05
F2
F0
21
06
EC
E8
21
01
12
F9
1D
08
04
01
0B
06
EE
28
03
FB
FF
F6
0F
FD
03
2C
16
F3
14
F4
19
0A
E5
06
DE
F3
E0
D8
16
E7
E5
0A
F7
E2
F7
D3
DA
FA
F1
F4
E9
08
EC
09
01
1A
0A
FC
DD
CA
ED
F2
FC
FA
10
E8
E1
EC
DD
D4
F8
C4
DB
FE
F8
17
FC
FF
FD
09
09
E8
F1
0B
0E
03
E3
E7
06
FC
F6
03
E8
13
14
06
F8
03
04
03
09
FE
13
F5
E8
0F
ED
EA
33
DD
1D
F9
F5
04
D0
F0
EE
E2
F9
8D
E6
E7
F5
FC
F6
E9
17
FA
DC
11
09
FF
0E
E4
06
F9
E6
0B
F3
F8
D5
D6
0A
FB
FA
18
25
F2
13
26
FC
11
FB
1A
0D
24
0B
12
0B
F0
02
35
02
00
07
24
16
F8
10
26
0E
FC
0B
17
19
06
ED
F8
0D
1D
02
FF
12
03
F7
13
1C
FF
06
F2
20
FF
DA
0A
E3
E9
04
33
23
ED
F6
F4
00
09
F3
03
02
EB
0F
FB
13
FF
FF
E9
EB
FF
FD
F9
03
F2
21
FE
0D
06
F2
03
FD
FD
11
ED
00
02
08
16
ED
EE
05
E8
01
E0
07
0A
07
F9
C4
EB
EE
F0
D0
D8
E7
E9
19
F4
12
06
F2
E8
00
0D
E2
E7
FC
EA
D8
F2
15
0C
F7
EE
F1
1D
09
17
0F
25
2F
D6
16
13
10
2F
10
F4
0A
B7
E4
F1
F1
02
ED
1D
00
ED
EF
FB
E3
1F
2F
2D
0F
DC
0E
FE
F8
E4
EF
E0
F1
E6
0C
FE
E7
10
0D
DC
E5
F6
0D
11
5C
19
EB
F7
D2
0E
F8
17
16
FA
22
F1
0F
28
09
FF
FF
FD
FE
0B
FD
03
00
10
0D
02
F0
0E
FC
E4
0B
F2
F4
FE
EC
0D
03
2A
0A
0D
03
09
05
15
26
01
16
0B
22
0D
EE
F1
FE
02
C9
F7
F3
FC
0F
23
DA
F0
13
02
EF
E9
01
FE
03
F4
00
0A
FD
0A
14
FC
EE
EE
05
1A
F5
E7
CB
04
02
07
27
F2
02
0C
12
0E
F6
F9
1D
02
FD
03
F9
F9
EA
EF
FD
12
F0
F0
F6
0C
07
F3
DE
F2
00
13
14
09
06
25
00
F7
16
F9
20
13
00
10
02
00
10
1F
28
04
F3
FB
E3
08
EB
F9
21
1E
0F
0C
1E
12
20
F7
0F
0B
F9
EF
32
16
F2
16
F7
20
0F
1A
0C
07
17
0D
05
12
F6
DD
0D
19
01
00
EA
0B
0F
02
13
FD
FE
1C
0E
02
08
E8
09
F0
D7
F7
18
2C
11
1F
F3
FE
0D
F6
05
06
F3
DE
FD
12
1C
32
09
D7
DD
5E
24
07
F4
ED
14
D9
06
1A
FE
FF
0F
05
FB
FA
E8
09
FB
FC
FE
F0
E4
FA
1D
05
CE
EB
09
23
FE
D0
E1
F8
EA
F2
FA
F3
EE
F0
FB
E9
F6
04
04
13
EF
DE
EE
FF
EB
F7
F7
02
EC
FA
ED
04
16
34
0A
04
FD
07
1F
FE
F1
07
05
15
0E
04
CD
AF
0C
03
03
F7
F1
F1
ED
16
00
FC
E5
0A
EB
F5
0E
00
FA
0D
0A
06
17
07
F3
07
FF
05
F1
CF
F0
F2
03
D8
F4
05
22
0F
1B
00
FE
08
11
1B
02
08
F4
F4
F0
30
0F
FA
01
DE
1E
0D
03
DB
FA
10
0A
39
08
E9
10
2E
08
FE
E3
FA
F0
F4
07
0B
06
00
FF
18
19
D5
C4
05
F7
03
CF
D5
D3
E1
06
FE
15
02
E3
FA
01
0A
F1
05
F1
00
2E
10
E9
F4
1B
03
FF
EC
F8
DA
F9
EE
E8
05
08
00
0A
0A
EC
10
00
01
FD
FF
ED
E8
27
17
28
D7
FD
08
0A
21
20
19
FD
F9
FF
17
EF
0E
FD
FC
0A
F6
ED
F0
F8
FB
E7
DC
F9
18
F4
FE
0C
22
0C
1B
29
FA
12
13
03
F3
08
0C
E5
0A
F4
08
FB
F6
03
DC
02
F3
2D
12
F9
16
FE
0D
EB
04
EC
0C
F9
10
FA
FF
13
03
F5
F6
01
0E
FA
ED
0E
15
2C
0C
E9
0D
FB
2A
EC
F1
0D
01
E3
EA
FE
02
F9
E4
FA
12
0A
23
02
FB
09
16
E8
E8
FF
25
17
05
0A
EE
E2
12
EB
07
EE
01
04
E4
F2
04
F2
00
EC
F2
FE
FA
F0
FD
E8
FE
E8
02
03
E8
09
0E
14
10
12
0B
F9
07
0D
0A
0A
09
03
05
E5
19
DE
D9
05
01
18
E8
FD
07
E7
05
FA
05
0A
0C
FB
29
10
ED
F8
0E
FA
08
06
12
F0
0C
0A
E7
F1
F8
0B
03
DB
06
1A
06
FC
14
1E
05
D9
F2
FF
19
FB
F1
06
0D
0E
19
EB
1D
13
0C
0E
D5
0F
33
F3
1A
17
31
16
EC
22
FF
12
10
EF
0E
08
07
F3
E8
F6
19
0A
16
15
07
10
FF
15
EF
F5
09
0B
EE
F5
FD
0D
12
FA
FE
15
0C
1D
19
0A
04
FD
0B
EE
ED
06
F6
05
02
04
1D
10
16
F7
D8
EC
F8
EC
E8
FE
07
05
0B
06
FA
03
F2
09
3D
28
DE
06
F7
06
20
FD
FA
ED
F7
F9
00
08
1F
1D
15
09
FE
06
F0
F2
FF
09
FC
EC
F2
DB
05
F3
FD
0E
19
0B
00
0C
FF
FD
03
F8
EA
04
11
D9
E5
E2
F1
F5
F5
F9
E5
F9
2B
ED
06
0B
05
2D
20
25
08
26
05
FC
03
F5
13
EB
F4
FB
FF
18
F3
FB
23
2E
EE
EE
26
33
26
02
F3
03
1A
0F
10
FE
FE
F1
FA
07
EF
F6
ED
F8
F0
EE
F4
D7
D9
FE
00
0D
E7
22
16
FF
FB
F3
21
14
0E
DC
08
1A
09
0C
19
48
28
EB
FC
FA
11
02
FE
19
15
FD
FE
16
0C
EE
11
2B
20
EB
15
1C
1A
F5
DF
01
01
E3
EA
D5
E9
F0
F6
00
F8
FF
16
14
27
05
04
EF
17
09
EE
FD
F4
FC
02
E6
28
1A
04
D9
D6
F2
16
F4
E9
E9
F6
E5
0C
FD
DA
EA
E0
06
F7
EF
F7
FE
03
F8
24
03
16
35
06
10
08
E7
F5
E3
D4
F7
05
F2
CC
FF
1F
1E
02
1D
05
EE
10
22
12
E0
1E
11
1A
04
F9
F7
06
15
F6
DE
E0
BE
EF
14
01
DD
AC
F9
F8
12
3C
D6
E4
E9
FB
45
00
0A
EF
08
00
06
06
F1
E7
08
00
19
25
09
02
10
0E
1E
F3
FF
07
03
FF
DA
06
CE
C9
EF
FB
F5
23
CF
F8
FD
FA
1A
F3
04
FB
01
01
19
15
04
07
10
FB
02
EE
1A
F0
E4
01
EF
03
EA
1F
0F
06
0D
FE
25
19
FB
F2
F9
20
02
F3
D7
EB
F1
FF
17
32
02
18
2E
F7
F2
16
0F
0B
06
FA
12
01
24
17
30
03
F6
18
FB
2E
1B
ED
04
1F
22
D7
AD
E1
E0
E3
B2
CF
ED
F9
00
CB
FB
FC
EC
26
E6
18
0C
F9
E9
1E
09
03
0E
08
24
22
FD
00
EE
E4
E9
0F
0D
FF
F7
FE
21
F0
FF
F3
0E
19
E8
D1
FA
FA
F1
01
1A
2A
17
14
E7
07
F8
E9
D8
FC
10
08
04
BA
F6
F9
F3
16
09
13
08
18
38
26
12
15
F6
FE
04
EF
0A
07
10
0F
EB
0B
02
F3
0C
07
F0
01
00
D4
CA
BE
E4
FB
F2
F6
FC
CC
C8
D0
EA
13
13
19
0A
16
03
12
10
2C
F8
12
13
12
29
F3
13
00
18
FD
DE
C8
C1
F3
F1
14
18
09
FD
EE
E4
11
03
E0
01
08
13
F3
F8
F3
FD
26
F9
13
F1
EE
08
E7
0E
FB
0B
15
F4
E7
FD
15
1B
F8
E8
0B
10
0D
0E
24
1D
E1
FC
11
0B
F2
F9
25
E9
ED
F5
00
04
FB
F7
0C
0E
DA
EE
F0
0E
F2
D3
E7
E8
0F
11
E3
F9
05
0B
FB
1B
FF
F0
E8
08
07
0D
05
1C
17
EB
F6
F8
E7
04
0C
FB
F8
05
17
26
28
FA
DC
F5
FC
D3
E7
EF
14
12
FF
01
1E
09
06
17
FF
09
0C
FE
0A
03
0B
25
09
0A
13
E8
F1
19
0C
1B
EB
00
F2
16
11
18
08
12
02
0C
20
EE
0A
E9
F9
ED
F2
3F
0B
F2
04
FB
F6
D0
C8
0E
0B
F7
01
FA
16
0C
EC
F2
00
F3
00
28
18
FD
EC
1A
DA
F6
F3
06
10
C4
FA
14
09
FE
EC
04
F2
FE
11
F9
EB
FE
05
0A
09
00
19
ED
EF
F8
10
F7
EC
F2
D3
DB
F8
05
20
FD
F6
24
1C
EF
EB
0A
15
08
F2
0C
0D
FF
07
0C
F6
FC
0B
0C
00
0C
EF
F4
01
FF
ED
F7
00
F9
11
07
FF
05
E4
DB
12
0A
FC
D7
F0
1A
F8
D5
DF
F1
EC
EF
DE
F8
EE
DD
DE
E2
FD
0A
D4
E1
E7
E3
F7
15
F7
FB
13
FC
F4
ED
EA
11
EB
F2
F9
10
2A
FF
00
F5
09
05
20
FB
FD
19
FF
11
FE
0B
11
08
01
15
1F
1B
02
FF
21
0D
FD
FD
F3
01
11
0C
FE
FB
17
10
04
F5
F3
08
10
05
16
0B
0C
29
13
04
10
1A
07
D6
D5
FE
0F
12
E7
CA
F2
0E
E5
0C
E6
00
2B
05
08
F5
03
24
F5
F3
0E
16
07
D7
EE
F8
13
02
EE
EC
FF
02
08
1E
0C
DA
EA
13
FB
06
02
EC
04
06
02
FF
11
F3
01
02
0C
2E
E1
F8
FB
01
08
F3
FA
F6
ED
F5
17
F0
FB
E7
F8
F2
F0
F0
F4
1D
F9
19
0A
FB
12
EE
C4
F6
FD
11
2F
12
F3
F1
FD
3A
F8
0A
F8
EA
FA
07
0B
06
F8
E0
00
17
07
15
FA
FE
07
0E
F4
01
F1
10
F7
F6
28
FD
21
06
04
03
E2
EF
FE
E4
F9
FB
F2
F8
E8
51
15
F0
14
ED
13
F3
10
F4
DC
15
DD
0B
EA
F7
DE
08
12
29
51
F9
21
0C
22
04
F5
E6
FF
FE
D1
20
00
FC
F5
D7
F9
04
FA
19
13
E0
07
FA
04
F9
E2
01
00
11
1B
10
12
F0
07
D4
15
0C
09
F5
00
0E
F1
0B
FE
37
FB
EF
E4
E7
FB
07
0A
AA
BC
D1
04
E8
E3
D7
F2
FF
FC
F7
E7
06
05
23
01
23
18
F0
34
E2
29
F7
D7
F6
DD
11
F6
EF
01
FA
04
0D
0C
19
1C
F1
1E
EF
14
FD
02
0D
FC
F0
0B
DE
FB
00
0D
00
F1
DD
F6
F2
FE
F7
1D
0F
21
0D
F3
02
FF
E8
00
1D
24
06
19
09
0F
EE
EF
04
15
15
F0
0C
FB
0D
F5
F7
0C
F1
0B
03
F5
FA
F6
03
DD
0F
C8
F6
12
1C
0F
D5
FB
0E
07
0A
F5
EA
EB
F7
D9
F2
17
18
18
41
16
14
17
01
41
06
FC
DD
03
1B
E5
DD
BE
F8
2E
EF
F8
F0
ED
FD
23
F9
EE
F0
FD
D9
BD
F3
EB
11
DD
09
1D
16
08
D1
FD
39
06
FC
EC
00
08
FB
E7
06
F1
07
F6
F4
0D
ED
07
EC
0D
0D
02
F9
E7
DC
E1
DF
D4
BE
A8
FE
E8
F7
ED
E1
05
F0
F0
01
07
01
F0
10
00
21
ED
0D
18
15
25
EA
ED
F0
FC
08
00
13
0B
1D
2A
FB
2E
FA
DA
F4
26
FB
D7
06
F9
E1
DC
EF
15
29
E6
2E
2A
2B
27
F5
F7
00
F2
28
E6
E9
0F
F4
10
11
05
E9
01
15
02
22
14
07
ED
FB
02
05
0D
EB
F4
01
F9
15
FB
1E
0C
05
06
D1
CD
E8
F9
1A
2F
E9
18
1C
29
30
F4
0F
E8
1E
1F
FB
00
E6
13
0A
F7
ED
07
11
19
F2
DF
FC
02
F7
1B
13
17
EF
F3
22
0D
0A
F2
DB
20
FD
1B
11
08
16
0B
01
30
1B
18
F1
FE
19
E4
04
14
02
09
16
02
06
F6
07
22
D6
05
EE
F8
E0
09
DD
DA
E4
E4
01
01
09
FF
F2
09
2D
F4
C9
C8
EA
02
FB
F1
11
1C
F9
09
FA
E9
03
F5
F9
06
F2
DF
00
1D
E1
DC
F4
E3
DB
E0
F8
F9
FC
0B
19
1A
FD
2F
05
06
F4
03
FC
0B
13
19
14
F1
07
03
FB
FD
FD
04
EE
F9
07
FA
1F
19
21
0D
F5
08
17
FC
22
EB
0F
1E
0A
22
06
06
28
07
F8
FD
08
1D
12
07
23
FD
F0
10
05
F4
12
FF
DB
F3
D8
15
E5
ED
FD
B6
00
04
FA
FF
E8
19
23
1A
07
22
09
FB
13
FB
00
F9
FF
F8
12
FA
E2
00
F1
00
FD
EA
E8
EA
01
E0
B8
E0
E2
0C
09
00
02
EC
3F
49
E2
FD
EA
29
12
FD
05
00
01
F4
22
0A
F8
01
0A
FB
F8
F3
05
FE
FE
F8
F5
FF
F9
FA
0D
FA
FC
F7
3A
FD
F1
F4
F5
01
BE
E9
EB
EB
F8
DE
E2
05
FF
1A
16
0C
0E
EF
EB
ED
E8
0E
10
E8
18
10
25
FA
DE
29
F3
08
10
C6
EF
FD
07
FD
F9
07
FB
14
E9
0A
0E
28
1D
F8
0B
18
1C
04
F5
17
20
E7
07
08
09
FC
07
09
F6
0A
10
29
FC
00
09
1C
F5
05
F2
FD
01
02
0F
E9
05
37
FE
F1
06
FB
DB
E6
E3
F6
0B
00
FD
0B
03
E1
EC
2B
0F
E8
02
E4
F1
FA
0A
24
FC
19
FF
07
13
EC
F6
04
00
DC
CF
E5
F0
F1
04
EB
E4
E3
F2
02
02
EA
EB
EA
F5
FC
EE
F8
10
F5
F9
E4
FF
18
08
01
F1
FC
FF
08
D8
D6
0B
E9
DA
E3
F7
0B
EA
18
D9
F8
20
F6
02
ED
12
03
06
16
05
17
04
DC
F3
0C
0F
F4
C6
E6
1A
FA
06
00
0C
0A
FA
03
15
18
07
21
EC
1F
0D
FA
14
0E
1F
E5
E7
F5
E5
F1
E4
FC
FD
10
06
00
F3
FE
0D
FD
0A
FB
0D
03
EE
FC
16
20
C8
F5
06
03
FF
E3
0F
0A
F5
21
EA
FC
F2
F0
28
1D
02
D4
D4
BD
ED
DE
00
0B
EF
FE
1C
13
08
FC
F0
02
FC
EE
11
01
05
F7
DC
FB
14
08
E6
E1
F4
09
09
11
10
23
F4
FB
ED
02
FA
08
04
FA
F8
F5
0E
00
08
0C
FD
0D
0A
08
FF
07
F3
04
0B
1A
14
01
0D
1A
EA
0E
03
FE
FD
FB
F2
04
15
DE
02
FF
EF
FA
08
25
17
09
F7
1B
0D
29
00
11
09
07
05
FC
FB
0C
FF
F2
32
35
F1
0B
F9
F1
2D
15
09
07
11
FA
11
07
06
F4
12
0E
0A
FE
F9
FD
F7
15
09
29
F8
E8
DF
09
FF
18
E2
E0
FF
06
F8
E4
14
FA
FA
C7
FE
16
0F
FD
FF
03
04
12
05
F7
09
11
F7
0F
02
EA
EA
E1
EB
1B
10
0C
06
FE
FE
E8
15
06
FC
04
D6
F7
F3
00
34
07
DA
C3
FE
20
E6
12
1E
EB
05
FC
ED
25
E2
FD
26
21
1C
F7
F4
F1
06
08
13
EF
EA
F4
F0
FA
F1
F6
F5
E9
0C
03
13
04
0C
C6
04
FB
14
F8
02
13
08
ED
EC
FC
00
0D
15
F3
FE
04
0E
FB
F8
0D
F4
F9
F3
21
F4
10
15
18
08
05
11
F5
F3
F3
FA
0D
FF
FA
DA
15
1B
10
FF
F4
07
09
FB
F6
0D
06
10
FC
03
03
FC
05
3D
31
FB
00
08
26
F9
12
1D
FB
FE
C2
11
04
F5
F3
C9
E7
0A
02
1B
19
10
0D
15
09
13
0F
FF
0A
F0
0A
0F
FF
04
04
03
DE
14
00
0F
F3
FC
E4
04
04
E5
F1
F7
EE
F5
FC
33
0F
E8
EB
F8
10
0F
E2
E0
DA
09
03
10
FF
ED
FD
EA
FE
26
09
0C
E8
F2
03
FF
ED
EE
10
0F
F9
0B
01
F1
16
0C
18
0D
0D
FF
08
16
FA
10
21
EA
0D
19
2C
0D
01
01
3A
25
05
FE
14
0B
2E
0E
07
EE
08
03
01
FC
03
3A
29
F9
E3
ED
1D
1C
F6
C9
EC
FE
09
CA
D4
F0
37
04
CB
E4
FD
C4
F9
02
FB
1D
07
0A
00
1C
F8
19
22
0F
F7
FA
EE
EC
BE
CC
F4
D9
DB
E9
D6
09
EC
02
FC
FB
02
F6
F8
EB
10
EF
10
E9
F2
F2
D3
09
1C
0C
29
07
04
1E
04
17
12
10
03
F7
E4
EE
04
09
13
E6
FE
14
0C
FC
16
F6
F5
13
F5
17
07
F4
FB
0C
1F
F6
FA
09
19
00
F2
FE
1E
F6
04
07
15
24
08
03
ED
0A
1D
F0
F3
07
DE
0F
F8
E5
E1
DC
07
F7
EA
07
0E
0A
FB
FA
08
FB
16
04
1E
04
0F
C7
97
D5
D8
AC
D1
BC
CF
E0
F7
E6
05
1B
0C
0B
FC
10
FF
06
21
04
19
FE
19
24
00
FE
ED
1E
FE
EB
DC
F6
FB
C7
FE
ED
0C
04
1A
0C
EC
FE
E3
1B
3D
07
1D
EE
15
0C
F4
16
F0
0E
20
07
06
EA
F7
1D
17
11
2A
05
00
0E
F9
E3
F2
F5
F6
1D
FD
0B
E6
D7
0B
15
92
C7
E6
13
05
ED
FA
1B
29
FE
E2
EF
1B
07
09
22
12
24
0B
02
03
21
F8
1F
04
1E
22
01
FE
04
25
0E
08
FE
C7
06
0D
06
06
0E
08
0D
F5
0B
02
F0
0C
0F
DE
D4
F7
06
0A
F3
0E
FC
0F
F3
09
05
EF
FE
29
DD
16
0A
32
3B
18
F2
FE
0C
1D
F9
0C
09
EF
C1
D7
F2
FA
E8
CD
DB
FD
14
0F
19
15
FA
FE
EA
F4
0B
F7
F7
EF
D4
D7
E2
DC
F8
F4
FA
F9
15
19
20
16
10
FC
FC
D2
DF
E8
05
08
0C
FE
0E
F2
D4
C1
E0
16
BB
A3
DD
F4
23
F8
22
23
12
0C
FB
FB
1F
17
06
09
E4
1E
11
FF
01
FA
18
0C
08
E9
DD
05
08
E2
18
F5
06
F9
00
15
EE
F4
F5
05
F1
FA
F9
15
16
04
09
19
1D
29
F4
19
0E
1C
08
F3
F4
29
12
FE
AF
DD
22
2C
2A
FB
F0
04
17
F0
E0
E5
01
00
06
EA
03
03
F0
D8
F4
01
FC
EA
E4
DD
0E
21
0E
0D
05
0F
FB
02
14
CD
ED
03
03
00
FB
F9
F2
DB
DD
03
F2
FE
E1
EA
00
08
12
0C
09
DF
FC
F8
FE
F4
EE
11
09
EA
DC
0F
F8
14
EE
F0
16
FB
1E
0F
E9
0D
04
F8
F1
F0
13
FC
09
0B
F9
11
02
FD
11
03
01
F7
0E
0C
19
03
09
EF
29
14
F3
F0
FF
09
EC
D2
E2
02
0F
07
FD
E1
1F
07
E2
26
EE
12
08
D9
14
13
05
0D
E8
E4
03
FE
10
0F
01
F9
F7
19
04
E9
E7
E0
E9
DF
F8
EE
D9
E0
EC
02
00
F1
E6
EC
DD
12
FE
07
03
04
0B
06
14
06
FA
F2
13
00
10
0D
02
FE
F0
F2
FC
F5
0B
0E
F9
F5
09
0F
06
06
06
0C
13
08
FB
01
2D
11
E1
E5
E5
FD
0D
E6
EF
E8
06
35
07
E9
FC
01
E3
0F
02
11
0F
FE
21
FD
0E
F7
D5
1F
F9
36
0F
DC
05
11
25
0B
FA
FD
05
E4
E7
11
F4
0B
F5
DE
F3
03
FC
05
0C
26
19
01
0F
00
15
14
07
01
F3
1C
09
F6
FA
FC
11
15
03
F5
F6
FB
F9
E4
F1
F2
0B
05
0D
F0
00
FC
FA
C5
F5
12
F1
E7
CF
11
0B
FC
EE
15
02
F2
FF
DD
05
07
F3
FC
0B
1F
0A
E5
19
04
12
0F
DA
FD
E4
01
08
0A
26
08
02
EC
1E
12
0C
FD
F0
12
EB
ED
D7
F3
FE
04
EB
D7
FE
FE
FF
E1
CE
F9
E7
25
14
18
09
F9
08
F2
09
DD
FB
09
F3
F3
0B
E7
EE
05
FF
EF
FE
F5
07
EF
F9
02
17
10
F8
09
EE
0D
F5
01
FD
F0
23
08
00
12
27
1E
0C
ED
02
FA
05
04
01
0F
FE
C3
DB
F8
F2
DD
EB
E7
F0
EA
E5
0D
FE
03
25
0E
F8
03
04
09
E4
FB
ED
05
F7
15
F5
06
0B
E7
0C
14
F8
26
0C
0B
F2
F9
15
1E
01
F8
E2
E9
FE
12
10
F4
FE
F9
0A
07
1A
0B
05
F3
03
09
00
FD
16
F8
E4
F7
1A
13
FC
F3
05
EE
0D
FD
1E
16
06
E1
E7
04
EA
04
FD
FE
D0
E7
13
19
FF
FC
ED
F6
0F
19
0F
E8
FB
F4
EF
F3
16
FD
11
ED
D8
FF
F2
08
FA
EB
FA
06
EF
DE
F9
FE
25
04
F6
1D
0B
00
03
1F
1D
04
FC
02
F7
12
01
DF
1C
02
F7
F5
19
21
1A
F8
F2
ED
F1
2B
FB
F2
15
04
0B
09
F4
E5
05
09
F5
F9
FC
FD
F2
F2
12
15
FB
E7
F8
07
08
16
FB
F8
FC
16
20
FB
FF
00
E1
CC
17
00
18
15
E1
F7
0A
F3
0D
FA
ED
EC
F9
18
18
00
EB
FB
FC
0C
1B
F3
DE
15
F3
00
08
0F
F4
03
CF
ED
07
F9
1A
0B
08
ED
13
FF
EA
F9
0E
E8
E2
F1
E2
3E
DA
EA
29
25
0E
FF
08
F7
0D
01
0B
FC
E1
E1
F3
E0
FA
F3
00
DB
FE
09
13
DA
EB
F5
ED
D1
D7
E5
FD
09
F6
D0
C4
C0
07
0A
08
E4
22
01
0E
05
E9
1D
F8
F8
F1
F1
03
05
02
FB
0F
09
EE
00
EE
F3
E4
F9
E1
E2
EB
0E
1F
16
EA
E6
F9
11
0F
09
1D
05
04
F9
F3
EF
10
16
FB
0E
12
0E
00
0C
05
12
05
07
F8
F9
11
13
0B
F9
F1
EB
FA
18
FF
EA
00
F4
0C
1B
1A
11
F6
F0
F9
F4
10
11
06
F7
FE
FE
FE
06
F5
EC
F3
DC
07
07
FB
05
00
04
EC
0D
32
17
07
F2
FB
20
1F
15
FE
F7
00
17
02
E5
E1
07
EB
F1
0C
ED
FF
04
F4
F9
F3
F0
D9
F2
FB
FC
17
EE
EF
FE
F5
0A
01
13
01
F1
F8
FA
C7
EC
06
FF
F6
F6
D6
28
11
DD
F3
EE
FE
03
F5
F0
0D
0F
04
FC
ED
10
06
EE
C0
F6
DE
D6
F0
F4
D3
D5
FF
EB
D8
DA
14
29
0B
E5
FC
01
FA
F6
0B
EF
FE
ED
EF
0E
14
01
E9
EF
02
03
FD
FB
19
EB
E9
05
17
14
E7
FA
05
FD
12
0D
F7
E9
00
E5
11
1E
19
0D
F8
04
20
0C
0B
FD
0A
01
EC
F8
ED
F1
01
0A
EA
1A
EA
13
24
04
FB
15
01
FF
05
05
15
0E
F5
FE
13
10
D8
F8
E8
F2
06
F9
DB
E5
FD
06
05
D3
00
FD
1C
08
00
18
F2
D7
EB
0E
14
1E
F5
EF
15
EF
12
1A
00
01
01
04
EF
F8
EE
08
F5
F7
0D
11
F1
F2
E0
F5
EF
F0
F9
EE
21
17
0B
EE
F2
03
1D
1A
08
EB
E9
04
F7
FC
F8
1A
09
0B
ED
F6
21
0D
FD
ED
FF
16
14
21
0B
F8
FB
1A
F8
00
11
E6
FB
13
E1
17
0B
22
17
05
12
D3
F4
E3
E5
FE
D6
EB
E1
D4
FD
01
0D
F4
F0
04
FD
15
F9
C7
08
E5
E6
EB
E4
E8
D4
E7
E1
00
22
12
13
09
02
18
10
FC
08
1A
10
F3
EA
F9
F0
FC
0E
FA
FD
F0
21
12
ED
0A
12
0C
FA
FD
11
08
DD
F0
1B
0B
15
07
0F
16
08
15
0B
06
F6
0A
F9
09
17
0A
07
E3
05
FA
02
11
1A
F8
01
09
ED
02
FF
13
F3
F8
E6
19
F4
C4
C9
EE
FE
DA
E7
C8
CF
0F
F8
DE
EF
E1
04
00
08
1F
E3
02
E1
E8
FF
F7
EC
E5
FA
FA
FD
1B
05
0A
04
F2
23
27
14
0B
F5
E7
F6
FD
F2
F9
EF
F3
04
E8
DE
15
06
F6
DD
FB
DE
E2
DB
E6
E9
1C
23
EF
DF
E6
0A
11
F4
EF
F2
FA
F0
F4
F7
F8
E8
FB
E1
ED
E9
1C
0E
E3
18
19
21
2D
E9
15
FB
10
0E
05
FA
F4
12
F8
22
07
0C
0C
47
29
0E
04
11
0E
1E
FD
0A
25
17
25
08
02
FA
07
0F
FB
0B
DF
F4
01
0A
FB
07
E4
16
15
FA
E7
EE
07
28
FF
C8
E1
E9
F2
05
D4
ED
FD
0D
F8
F9
F4
10
1B
09
F2
F2
0D
EF
0E
EE
DE
ED
02
08
E2
05
07
EE
FE
E2
F4
0E
F6
05
E3
FF
11
09
1B
03
39
21
19
F4
0E
1D
07
0D
FE
11
FD
0F
D4
17
1A
1F
E7
E9
0C
0D
17
E3
E2
F2
04
1F
11
F3
E5
0C
FD
2C
F6
D9
02
2E
26
FA
05
03
1F
ED
15
0A
DA
DD
EE
EF
13
FC
E7
0B
0E
25
01
06
F4
04
25
F3
F2
09
0F
FF
F3
04
09
0E
08
05
13
F8
02
0A
F6
E3
FD
0C
0E
FA
DA
07
03
02
C3
FA
F1
04
07
B1
DE
F7
F4
F8
ED
EA
08
02
F4
01
09
F9
F6
09
EE
EA
E7
01
F1
ED
FB
08
E0
00
FD
FF
04
FD
01
F2
F5
04
04
12
FA
EF
DA
F7
FD
F9
15
E0
14
28
27
11
CF
F1
35
1A
24
E4
05
1F
02
12
F5
13
D8
FD
D1
D7
F9
03
E3
C1
04
15
F3
81
D8
FB
F5
DA
AC
E0
0C
0F
F5
E9
FA
1E
1C
0A
F9
4A
2E
FB
13
08
1D
04
E5
EA
0E
0D
22
D7
EB
04
25
15
F2
0D
0C
17
FB
EB
ED
01
06
07
F5
ED
F6
FB
07
22
22
08
F3
18
F9
11
1A
13
05
0B
13
1A
EC
F2
FF
11
03
1F
2C
15
28
07
2C
FA
04
10
17
1C
F7
08
0B
EA
F5
F9
E7
0B
CD
D3
FF
00
09
F6
EB
ED
DF
0C
EF
F2
09
F2
FC
FE
F7
E7
FB
EA
03
FF
07
04
EF
0F
03
0A
01
FB
01
ED
12
1A
04
E4
F2
F3
F5
D4
BA
E4
FE
FC
15
B5
CC
F5
EC
EC
03
0C
FB
13
0C
FB
26
0C
12
14
DB
0E
00
E3
0A
02
F8
17
F1
F1
0F
01
12
0B
FD
36
00
03
03
00
05
F7
EE
08
08
0A
FE
FA
FA
05
07
FC
09
06
03
EF
09
01
F2
00
FC
F3
0C
F2
F7
F2
04
F2
FB
07
FF
FE
F7
03
FC
F4
F7
FC
F6
FE
F6
09
0A
F6
FD
01
01
FA
F2
EF
F0
FD
FC
F4
0B
F7
07
09
F0
F4
F4
F0
EF
08
FE
08
F6
F6
EF
01
F6
F9
F8
F1
05
F3
08
F3
F6
08
F9
F5
FF
07
FD
02
FF
F5
00
F6
04
01
F8
FF
08
F9
02
FE
09
F5
F6
FE
F1
F1
F0
F6
01
04
07
EF
05
0F
FC
07
F3
09
03
FB
F5
07
EF
FD
FD
F3
FF
01
04
04
01
03
FC
F2
FA
FB
F5
09
08
0B
08
FA
F7
04
FD
F8
F0
F0
02
F4
0B
FC
04
0D
04
07
04
06
00
FC
F1
EE
EE
0A
02
FC
EF
FC
01
F8
F8
FE
FA
F3
F9
05
EF
06
08
05
F8
0B
03
05
03
FD
F1
02
FA
FE
05
EE
EE
FC
FC
03
FD
FD
00
06
F0
01
F4
05
FD
EF
06
F5
FD
FC
00
08
09
0E
FA
F8
FF
01
F8
08
0A
0C
04
FC
0A
FD
07
F6
06
F3
FA
F8
F8
F4
FB
05
07
0A
F9
F9
FC
02
00
F8
04
F7
04
04
09
F7
F7
EE
09
F5
05
0B
08
07
00
F6
F2
F4
FD
03
F6
F2
07
FE
F4
0E
FF
F5
01
F2
F8
09
01
F3
01
F7
F2
F0
07
04
F2
F0
FF
F2
03
F0
00
05
FA
03
F4
F0
02
FD
FF
FB
F0
FF
05
FC
F6
F3
07
F2
FF
F7
04
01
FE
F4
F7
F0
09
02
FB
FF
F7
07
F8
00
F3
0C
FD
F9
FB
FE
FB
F9
02
0A
FD
FF
01
EE
0A
01
05
F7
F3
F8
02
F4
FB
FF
F8
F1
06
05
0F
0C
01
F7
03
FB
EE
01
EE
0B
FB
FA
03
02
FD
F6
09
FB
FC
01
F0
EF
F1
F0
F4
09
03
EE
F3
00
FE
09
05
F7
F7
F7
F1
09
FA
FA
08
FC
F4
FB
F5
04
FF
FA
00
F8
08
40
0B
FF
F2
0D
1C
00
0A
D7
0A
F8
1A
07
ED
FA
1C
17
01
01
03
F7
12
1D
FB
D2
FF
19
21
19
FD
11
0B
08
32
1E
19
F8
DF
F9
08
EF
03
F1
08
08
FF
EF
07
01
E8
FF
08
11
2A
F2
11
02
00
FA
0C
FF
F4
E8
E7
12
0F
03
0F
F9
0D
E9
F3
F9
01
FA
E6
0A
1C
17
14
0A
09
04
F7
FD
02
F4
00
F7
01
E9
EA
04
1B
E5
DC
27
FC
01
F8
0C
2D
16
04
FA
1A
1C
10
ED
EE
F1
FF
14
FB
E6
CC
E4
F7
00
E8
E1
24
F4
00
F9
08
F1
F0
00
21
08
F8
FA
D9
E5
05
F7
02
F4
0D
09
F5
FF
EF
EB
F3
03
0B
1F
04
05
F8
13
F3
05
03
FF
F4
14
1A
09
10
08
08
1C
F1
12
0C
0D
04
07
13
18
1C
BF
E6
12
F7
12
E6
E9
ED
F7
F5
08
FB
FD
07
F6
23
09
F9
FD
13
F9
0B
EE
06
03
F1
0D
F4
F9
0C
0E
0D
D9
F3
1D
FE
ED
17
1D
FF
E9
11
32
26
1D
EC
12
3A
F9
14
FE
02
16
28
1B
D9
13
1C
0B
27
19
26
0F
E5
14
20
16
15
09
11
0E
09
E3
FB
02
23
24
27
21
13
1C
14
08
EE
D4
25
08
0E
FF
EB
19
09
F9
04
F9
08
F5
0F
04
F7
FA
12
0E
10
1B
FD
12
09
F5
FC
0C
08
F8
B1
DD
0C
E9
E9
E1
0F
E9
F0
F6
E2
F9
FE
15
3A
17
E9
04
13
19
5A
19
E3
13
09
1C
FA
FA
1F
04
FC
FA
00
0A
E6
EE
E8
FA
E6
01
E4
F7
FF
03
F8
05
23
0A
05
F5
EA
FD
03
0B
14
F9
0E
EB
E6
11
F7
12
F2
D6
0C
0E
1E
FD
0D
F6
0C
2E
09
0C
FF
01
04
1A
F6
06
06
E8
F6
FB
05
0C
FF
FF
28
25
01
0F
0D
1F
FE
10
E3
FB
26
19
17
03
16
FC
0C
0E
FC
03
F0
0C
07
F1
01
FC
0B
04
0C
0D
04
F5
11
08
FA
0C
0F
02
F5
17
32
07
FC
0E
1B
FB
FA
03
03
E9
DC
CE
D1
E2
F1
F9
FB
F2
01
F9
FA
E8
01
12
27
FE
E1
F4
13
F8
F8
F8
04
22
F5
ED
FD
FD
04
EA
E0
09
FE
FF
2B
18
FA
03
04
33
0A
03
E5
0F
F6
E4
EF
E8
02
F7
E8
FD
F6
00
FC
FA
F5
11
31
EA
F0
FF
10
1A
12
E8
14
F4
FB
18
F8
26
FF
1F
F3
05
13
2B
0B
E6
E9
06
0E
05
FA
F4
E2
01
DD
01
0A
E8
F8
EC
04
F5
FD
FA
F7
FB
EB
0D
05
E6
1E
11
02
F8
E8
1B
06
01
04
12
E7
EB
EF
FB
0D
E9
00
02
F7
FE
DB
ED
EF
FF
EA
0A
11
EF
06
0B
14
F3
03
FA
03
09
0F
02
FA
10
F9
EA
EF
03
13
F7
EB
02
01
00
19
00
0B
08
15
20
F0
EA
09
13
0E
FD
FF
FE
0B
18
F9
FC
10
F0
F9
FF
EF
0C
02
F2
FA
0A
C4
D9
0E
21
16
FB
C8
F7
F2
19
F6
E8
F2
DB
14
31
F7
E5
08
F7
F2
F6
09
21
00
08
04
20
F1
F6
24
0F
FE
05
00
15
F8
F4
FA
FB
0C
FC
0B
EE
13
11
16
F2
FB
05
20
10
E5
F2
FB
F7
10
17
18
04
F6
0A
1C
16
FD
0F
0E
07
03
FE
06
F1
ED
FC
07
03
E2
F0
10
0B
14
10
1F
14
05
F8
06
03
F6
F3
F9
F0
F3
0D
0D
FF
EE
F2
E7
FC
F3
F2
07
06
09
F5
FF
0B
FA
F9
FC
10
1D
0A
FB
F2
16
1D
04
15
0D
D7
FD
03
12
FA
EA
FD
FF
14
12
05
0F
FF
05
0F
18
02
F1
04
11
19
F5
E1
E7
D6
E9
15
07
1E
03
FF
16
F6
14
02
0C
FE
01
11
05
FE
06
FF
28
17
FF
F4
F3
11
01
F9
1E
1E
24
11
17
11
0F
F8
12
F2
05
0D
11
02
FC
10
00
F6
14
28
1A
E7
E4
FE
FF
01
04
15
10
15
11
14
01
16
19
FE
F7
0E
FE
1A
0C
05
01
0E
11
BC
E6
E4
FB
EE
E8
EC
E4
FD
EC
FB
ED
F7
FE
F8
0E
23
04
F8
D8
07
F2
FB
0A
D7
F0
08
00
FD
07
09
20
03
10
07
D7
FF
FE
EC
07
02
EF
06
01
F5
FA
09
0C
00
D7
01
FC
14
03
F6
EA
E8
FF
FF
F5
04
0E
11
0B
0F
04
28
11
0E
14
15
F5
FD
13
0E
E9
EC
0C
E1
ED
08
FE
04
EA
0C
FE
13
16
02
0A
F5
05
13
1E
14
F6
0E
37
11
03
F4
01
18
06
FB
FF
EA
F3
FD
08
FD
CC
FD
F7
01
1E
EB
FC
1F
E9
36
12
02
F7
FA
F2
09
05
F0
EE
0D
03
00
1F
18
06
04
B5
CF
D7
09
EC
D0
DD
C7
07
F8
EA
DF
C5
FD
FD
E3
F3
FC
01
0B
0F
16
12
FA
FE
0D
0F
06
06
FF
05
0A
F1
01
F2
1A
F7
F8
04
F5
F5
13
15
FF
0B
11
1C
F2
03
E4
E5
F1
E2
F0
ED
E8
D8
B9
EF
07
14
E2
B7
EE
07
FA
00
F3
14
FA
F8
1C
00
10
F9
EF
F5
04
23
10
F1
F6
07
14
06
F5
EB
E6
E6
B6
EA
FF
FA
DD
01
FF
FF
18
FF
1F
17
1F
00
0A
01
08
1B
16
17
DA
04
0D
03
0A
E6
F6
0C
13
FA
EE
09
08
02
FF
0C
0C
1A
F9
04
12
13
F6
EA
0E
0E
FA
00
F4
0C
0E
E8
00
F0
07
0C
08
CD
E7
11
F3
F7
EB
0B
FD
F7
12
E6
1F
09
03
15
F7
EF
06
F9
0B
05
F5
E5
F4
F5
12
F0
E7
F0
E1
E0
C5
F7
FE
F6
D4
E1
13
FD
F8
CE
BC
FC
00
01
F5
D3
F3
EC
FD
F9
08
E0
E5
F8
ED
FF
0B
1B
FB
FD
E8
F3
01
EC
04
E9
12
02
06
07
FD
FD
EE
D4
F1
03
F6
EB
00
F7
0B
1B
F6
15
10
13
15
F6
08
FC
FA
1E
25
F6
FE
0D
FA
FC
EF
F1
00
07
E3
09
09
EC
F4
01
02
11
04
F1
E0
FC
13
0E
AF
EC
18
3C
0D
E5
FF
11
1B
0F
D1
C7
ED
F7
06
E7
F6
E2
D1
CA
DF
EB
07
15
EA
FD
11
15
0B
18
07
F3
01
FE
0F
D1
F6
0A
EB
E2
07
03
02
E6
FB
E6
04
0B
05
1B
04
1A
F7
2B
0E
00
06
FB
F4
06
1B
06
18
F1
E0
F8
10
08
ED
EF
F9
18
EE
18
01
FD
02
20
0A
F0
FD
0C
14
F4
F4
F0
04
08
FA
05
01
EA
E2
07
30
18
EC
F9
11
04
F2
E5
DE
01
0A
DC
EE
09
DE
FD
27
21
24
0F
E6
E0
EB
24
17
FF
D4
02
F9
06
01
06
FA
0A
0A
FB
F5
E9
FD
00
1B
F1
1F
13
FF
F6
F4
1D
04
EF
F2
F8
FB
EF
02
FA
05
F3
FC
0A
01
FC
08
EA
06
F8
03
05
FC
0C
F8
03
0C
F4
FD
DC
EA
FF
05
08
F0
FD
F9
04
ED
03
F3
07
0C
D1
F7
F6
1B
04
EB
FC
FE
08
E7
07
0E
EB
E4
E1
F4
E5
FC
04
19
20
07
F7
F3
E4
09
FA
2D
22
E1
EF
EC
08
07
E1
EB
E8
0A
F6
0F
FC
F6
0A
0E
1D
1A
11
1B
02
01
F8
F7
EE
EF
12
FC
E8
C7
14
07
FE
06
D8
FC
F0
FE
2B
09
07
1B
02
F7
0F
FA
0D
EC
10
F9
F8
F8
0C
06
EE
1A
01
F6
D0
00
05
04
E3
F8
0B
0C
FA
00
0C
01
08
17
0E
19
24
EA
EF
F4
12
1D
ED
09
E1
10
05
E3
EA
D4
E7
0A
F2
06
FC
12
04
0C
17
EA
01
08
03
07
0A
0A
F1
F9
04
FB
ED
05
02
16
0F
FA
FF
F5
0B
18
01
FA
E6
0B
07
1A
0C
F0
0D
EE
0F
F8
E0
04
F3
F4
FE
10
EE
02
E5
F6
E8
09
0F
02
02
E2
03
E1
ED
31
13
0F
10
EE
09
FF
04
0B
08
F7
FA
E5
01
05
F0
38
37
1B
12
01
1A
0D
E5
FB
F2
FF
09
F9
F0
1F
22
FA
FF
F7
1E
24
07
FD
E5
26
0B
0D
FD
05
0F
1E
0A
0B
FA
31
1A
F8
DA
03
1F
01
05
07
22
0A
0C
00
F9
24
DE
D4
EB
12
FF
DE
FF
04
F7
F3
24
1E
10
08
0C
0B
11
13
08
11
02
0F
05
05
10
DF
DE
F3
F8
FE
DF
FE
06
10
12
DE
0C
F9
1F
F5
ED
EE
07
14
1F
F5
06
17
09
FF
FB
03
12
15
10
E6
03
25
14
00
FF
2F
EB
06
08
07
19
07
00
F1
07
10
31
01
EB
F1
FB
E4
E8
F7
19
3C
02
F6
DD
F1
1D
E3
FB
07
F2
EC
FF
F3
F3
DB
F7
FE
05
02
F2
00
FE
0D
0B
1D
10
00
F6
F9
22
F5
04
14
06
2A
E5
FA
0B
25
03
05
FE
0A
22
E8
EA
F8
FF
0B
0F
F1
FA
E3
07
04
09
E8
0E
0B
06
18
06
F8
0C
05
12
FE
F6
15
FF
08
03
00
DE
07
FF
F9
01
F5
0D
11
28
3F
33
11
04
04
EB
27
F9
E5
E7
0D
2D
EE
21
33
08
0A
38
2C
17
D0
02
0F
0E
0B
FD
0E
F4
F3
19
0B
02
EC
FC
FE
02
02
ED
07
08
24
0F
D7
0A
1C
0A
0E
E0
F9
ED
01
F8
15
0F
F7
04
FF
18
13
06
0F
FC
DF
EA
E2
EE
FB
DF
DE
EB
F8
1F
E5
FD
20
03
EB
FE
06
11
03
1E
FA
02
1A
0F
16
EF
06
2E
35
01
FD
20
03
43
2A
F2
14
24
F3
FF
E1
01
0E
FB
EC
14
24
14
06
06
02
06
05
FB
F2
E0
E8
E4
FB
E2
E8
DF
02
00
F8
06
F5
F4
14
31
FB
EF
F5
E8
1A
FF
FB
03
FF
08
23
23
02
0F
20
05
00
1D
23
02
15
18
22
13
04
F6
FD
0D
09
09
03
22
1F
01
07
07
19
37
0D
F9
E8
E8
15
09
02
F2
F6
11
F8
E8
EF
F5
FA
F9
FF
F3
D7
C2
E9
E7
00
13
07
13
11
0B
F8
16
1C
FF
E7
06
21
03
08
17
17
F1
F9
F8
0E
3C
29
24
17
12
1F
F1
EF
D2
EC
03
1F
E9
DC
03
0E
05
E0
E5
19
0E
F2
E9
EF
FB
26
1E
16
EB
0D
00
F7
F0
F8
E7
E0
F5
0D
F9
FA
F8
F4
F6
F1
0C
02
F1
EE
F4
FF
FC
FF
F3
E3
FC
17
F4
E3
CD
16
02
ED
EB
20
02
D7
FD
0B
0C
FA
FF
19
FC
E2
06
0C
F4
D8
DA
13
FC
F7
E8
0A
08
C9
14
2C
05
00
F5
1A
1A
F6
02
00
FC
F8
0B
14
1A
13
05
E6
CC
F3
0E
F2
FF
24
F2
07
F1
02
FC
D9
E8
02
F3
DB
EC
EF
09
15
F7
17
FE
F5
16
FC
FB
04
F3
0D
EC
0B
19
FC
E0
0A
ED
EA
F3
E9
FD
0B
05
11
2A
DC
14
24
FC
F5
ED
F7
F0
F3
E8
E3
EB
18
F8
12
EE
0C
ED
FD
FD
05
FA
F2
ED
ED
05
F4
F5
10
F9
F4
F5
03
0C
11
F7
01
0C
14
F6
02
EB
23
13
F5
17
09
3D
35
13
E3
EE
08
28
12
C4
02
10
0C
10
F8
0C
F8
18
19
06
0D
E2
F5
05
12
F4
02
EE
06
E1
01
E5
D3
D3
15
FD
F1
F7
F2
00
FA
F4
16
27
E0
F9
F2
0A
F8
26
20
FF
0A
D5
0F
18
17
13
F8
08
10
05
F8
D0
0A
EF
EB
D8
02
E7
E7
FD
E4
35
17
03
07
0A
EB
04
08
C7
C2
0A
F3
09
FA
17
1D
E4
01
19
30
2A
0C
1D
1B
2A
FE
0F
1C
FB
0D
02
ED
0B
02
0F
06
1D
16
26
09
FA
0D
FD
02
E2
E1
04
E8
EE
E4
16
F5
F9
FC
01
35
E5
FB
0D
26
0E
DF
12
F3
03
F3
17
04
E2
EF
0C
19
05
FC
EC
F2
12
FC
10
0C
11
FF
D3
E1
0A
F7
1F
25
1D
16
09
12
11
17
29
FA
01
1F
F1
0D
03
04
FB
0A
0A
13
ED
FD
FB
F3
F0
F1
FB
FB
00
F3
07
F3
ED
E5
ED
02
F0
F3
FB
EE
EB
FA
00
FA
ED
EF
F1
F1
08
FF
06
FF
F3
EB
F6
F3
02
E8
FC
FA
0D
F0
F8
08
03
F9
EF
FD
F5
E5
08
F7
F1
ED
FE
FC
F7
00
F5
F3
ED
00
FF
EC
01
EB
EE
F7
EF
EE
0C
F4
F8
EC
E7
0B
E6
F4
F9
FB
F9
FE
E8
EB
F2
FF
E2
E5
FF
E8
F6
EE
F5
EA
02
ED
07
04
E5
02
FF
FB
F2
F2
E5
F0
EC
F4
F8
EF
F1
F0
EA
F5
F1
07
F3
F1
FE
ED
03
F1
E8
EB
FA
F5
F2
E5
05
F8
00
F2
FB
FE
F2
F5
F4
FE
08
F9
EC
EF
ED
F8
E9
FD
F7
F7
FC
E8
06
F6
E7
00
02
F2
F4
ED
EB
FA
E6
05
E9
01
04
EC
E9
FA
01
FE
F2
E4
F5
E0
F9
FC
EA
03
FC
F6
F6
EA
E7
F4
01
FD
F7
09
F6
00
F2
03
EF
ED
F3
E8
FA
F3
E6
E5
EA
EE
08
F6
E1
F8
EC
FA
FD
F1
ED
ED
ED
F1
02
FF
E3
06
00
F0
EF
F5
FE
EB
05
01
F2
05
FF
FC
E4
F2
0A
FD
F4
F2
FE
F9
E6
00
EB
05
FE
EC
ED
0E
ED
FF
F2
ED
F5
F2
FC
00
F1
06
ED
E5
F1
FA
00
F2
FD
FD
01
03
E6
E4
F0
E2
FF
05
01
F2
F4
EF
E9
F8
E7
E8
EF
FE
E7
EF
EF
03
F9
06
EE
E9
EA
EF
F2
F3
01
14
07
0E
F9
EE
F5
FA
08
F2
F2
E6
F5
FA
07
F7
01
DF
08
FE
F1
ED
00
EB
14
EE
FB
F8
F3
09
F1
04
00
EB
02
FA
F2
F5
F5
F8
01
00
F0
EE
F9
FB
E9
E9
EB
F0
00
05
F4
E6
FB
FD
FC
03
FC
06
F2
F4
08
F5
03
F8
F5
FB
00
10
FC
F6
F9
EE
FF
04
05
EF
EE
E8
EB
02
08
F0
F7
F0
FD
E9
04
FB
E8
F2
F0
FD
00
F2
ED
F6
EA
ED
F1
F9
F9
FD
05
F3
F1
DF
F9
13
07
06
30
18
27
FB
14
19
08
F9
FA
01
F8
FE
F3
01
0B
12
F7
FF
F4
29
FA
EE
08
EB
35
1E
E8
F5
DA
26
18
16
05
FC
FD
0F
18
E1
FB
F8
0C
F5
F3
03
19
13
0E
0E
DF
17
1E
0E
EA
F0
D3
E7
18
FF
EC
FC
F2
FA
F5
11
06
04
07
F4
F2
FA
16
0C
07
E2
E5
16
FE
09
DA
00
0C
1A
0B
FE
01
F3
0E
FC
0B
09
F9
0B
F8
0A
14
FB
FB
DD
03
16
09
F8
F0
1A
1A
19
10
29
20
1C
EC
1B
3A
F0
00
21
06
F7
F9
1D
0B
04
07
FC
CB
E9
06
F6
E4
D3
CB
06
ED
FD
1B
D8
FA
F4
FC
0B
1B
1A
0D
27
19
16
FB
09
02
27
22
FB
FA
EE
EA
E7
D4
FD
03
05
DC
D4
EA
09
F7
04
01
15
FF
1A
2A
0D
06
EF
0E
2D
0A
09
F6
11
01
08
E9
F0
D2
03
04
FA
FD
02
EE
F7
EC
F0
12
FA
01
FD
DF
0E
03
FE
00
08
D2
E3
07
E4
12
06
E2
29
E2
FA
0B
FB
2A
2A
29
13
FF
EF
01
F2
21
07
E3
11
F9
02
F1
EB
34
1A
00
00
D8
03
F2
0F
02
F8
0F
ED
DC
E5
E8
EC
FB
04
04
F4
10
F0
19
FF
02
1F
E9
EF
FE
08
F8
F4
EF
06
03
FF
FB
F8
F6
02
10
FD
00
EC
F3
11
F8
F6
E3
19
0E
EE
E5
FA
18
DC
1F
03
FB
09
09
1C
FF
F1
CE
F3
17
FE
3C
02
F9
06
10
00
11
01
1A
DA
E9
0C
0B
05
FC
04
F9
F7
06
FB
FD
0D
04
00
DB
FA
01
05
F2
EC
E6
F8
F4
FF
E9
FD
FA
01
24
FF
FE
F9
FE
15
18
1C
F6
FC
E8
17
09
EC
F3
F1
F4
F3
2A
FB
FB
FB
FD
09
F5
10
05
F7
EB
03
17
0F
E9
D0
10
F9
E2
DE
0B
1E
E7
DB
E1
F5
1C
FB
F6
0D
01
F7
0F
E8
F8
31
18
1D
F0
36
39
1B
14
09
0F
E9
F6
F8
10
01
FF
F0
FB
11
0D
06
FD
FB
F2
09
0B
1A
02
D8
E9
FA
F4
13
07
10
05
EB
0A
23
F6
EA
FF
0C
08
EF
E8
0A
12
02
01
E9
ED
08
EC
F3
01
01
F7
FB
F6
F4
F8
13
2A
07
0F
09
02
11
0E
10
EA
0C
F7
F7
03
D4
DF
09
FE
11
04
19
F2
01
15
0C
2F
09
FF
FD
23
FE
1A
EA
F5
05
06
F2
F0
25
1A
05
F6
FB
29
37
1E
E0
E9
0A
42
F2
EF
F4
04
19
F0
F7
FD
FF
D9
E5
F4
F9
F2
FB
EE
05
02
FD
FF
EE
29
1C
00
FD
02
FA
FD
04
09
12
0F
F9
F8
E7
DE
00
E6
F3
11
07
FF
F0
00
FE
F6
00
E9
E2
E5
04
11
FC
11
10
02
1A
FE
1C
0F
20
0A
04
0C
09
2C
F3
02
06
09
02
0B
0F
F3
FF
0F
FC
F6
F0
09
FB
FB
F4
F2
03
00
F5
FC
EF
02
13
F1
01
E8
F9
F7
F6
03
09
E4
D5
FE
FC
2C
1B
F8
EE
05
3E
05
FD
FE
F9
2D
04
13
05
0D
14
0D
00
F6
11
F0
F2
F7
0E
0D
14
15
11
25
1E
0B
17
01
0B
16
DF
00
1E
21
17
30
3A
1F
00
F7
0C
18
11
20
F0
FF
F9
F8
16
E5
04
FD
FE
F7
01
15
13
FC
ED
F7
0C
07
04
F4
0B
F2
F6
1D
10
13
FA
F8
04
02
FE
00
FA
11
F9
F5
FC
E1
EB
F2
03
12
14
06
EC
E4
24
33
1B
F6
0C
15
00
F5
0D
01
09
15
EF
1E
FB
01
0F
09
0C
04
EF
EC
E4
F5
F2
F9
DB
CE
0B
F7
0A
F9
04
FF
03
05
22
17
F7
F0
F9
07
12
F5
FE
FB
EF
F3
0B
F0
06
E0
19
01
03
0C
0B
FE
0C
FB
FB
F4
E5
0A
04
16
07
ED
EE
11
1A
FC
1E
24
1A
17
08
06
15
FE
02
09
FD
13
14
F8
16
EB
16
F4
02
11
1F
13
F6
0E
F7
0A
E7
D9
03
E7
F9
EE
DB
F9
F2
F9
FB
EA
DD
FC
F3
00
F6
F3
ED
12
13
10
1D
0E
EE
0B
03
0D
17
29
0D
EA
FB
0E
19
16
14
09
0A
F5
08
17
12
05
09
04
F0
FD
EF
D9
F8
EE
FE
06
03
EC
F9
FF
EF
F0
10
FE
05
03
FC
0E
0A
18
09
1E
F1
F7
E8
F9
DD
E0
F4
03
E2
F3
F6
F6
FF
F7
D9
DC
F5
14
F8
C4
ED
D7
E1
F2
1D
FC
F7
ED
E2
06
07
01
E7
FC
0B
14
0F
DE
17
06
F2
09
F8
1C
16
FD
27
14
0B
01
F2
FD
E8
FB
09
DE
15
FF
07
EC
07
FC
F9
EF
DF
0F
F5
38
02
F6
0F
F1
0B
14
0D
F5
F1
0D
00
13
0C
04
F2
0B
14
0F
F4
F6
FE
F8
1C
15
0B
0F
17
05
18
F0
F6
08
17
FA
F7
06
05
20
FD
05
0D
10
F3
F4
E4
04
FC
CD
0F
FC
01
EC
F8
0E
09
06
FA
F4
EF
06
05
EC
F6
E8
07
F7
FC
F3
0D
FC
03
01
01
0D
FB
0A
2E
EF
FA
E0
F4
4D
01
1C
17
FF
F7
10
14
F3
0B
F4
1C
F7
F3
F5
E6
FB
04
07
00
01
F7
FA
00
07
03
E0
D2
DE
EC
DB
E9
F4
F8
F2
EC
D1
E9
F9
02
E5
D7
DB
EE
00
D7
D5
D4
E5
DD
FF
F8
F6
F7
EF
FC
02
E2
F2
FF
F3
F0
0D
01
09
EE
F5
ED
08
F3
F7
F4
E8
08
0B
17
F3
E9
D8
EC
05
16
FB
1C
05
1C
EE
F3
FB
E0
1F
F0
0C
F7
F4
F2
14
2A
2C
06
EE
F3
06
10
09
08
ED
EF
05
F1
FD
0E
FD
13
12
08
11
01
0C
0D
22
FE
0B
FA
FF
F5
F9
17
FC
01
E3
06
FF
F3
0A
23
14
02
19
FA
19
1E
21
0F
19
18
FB
ED
FF
F6
E6
FE
12
0F
0D
FA
D3
C8
F6
F6
ED
E1
EC
1C
F0
FA
13
04
F6
FD
08
F3
F2
E5
07
14
17
F9
D0
E2
05
09
04
E4
0C
08
EE
09
03
0A
0F
F5
E7
0C
02
0C
01
F9
0E
00
F2
DE
FF
21
13
19
D6
EA
DF
EB
FF
E7
EA
07
00
14
01
02
10
17
EE
03
0F
00
F3
E9
FB
02
FB
01
FB
08
0E
0E
0E
24
FD
08
FE
13
F8
0B
EC
ED
08
F1
F6
EE
01
04
ED
0A
E9
0E
17
10
08
01
00
06
EA
0F
2A
00
F7
EC
1E
13
F5
1C
15
0F
FD
FD
0B
0A
00
1B
10
0E
EA
03
1F
FF
FD
0D
FC
F7
0A
E2
17
F4
F8
FE
F4
08
FE
EF
0C
11
0C
02
F9
DD
05
0D
FF
08
FD
FE
04
20
02
FD
10
F3
0D
FF
FD
FA
F9
F9
F9
DC
E7
13
F6
FE
F4
F3
F8
E4
EC
05
FC
15
EC
FF
07
E6
FE
F9
11
F2
E4
D9
04
15
00
E5
E6
BE
DF
0B
EE
F8
F5
DD
00
EC
08
F9
06
F7
1B
00
21
09
03
FC
FB
05
0F
0A
05
F0
01
FF
F6
F6
F0
FA
0B
E5
10
2E
1F
19
D6
03
E3
05
F1
F4
E5
EB
E9
ED
12
E9
CC
EB
06
00
1A
0A
C7
D8
F1
02
0C
F8
0D
FA
E5
06
F8
02
00
E8
0A
00
0F
09
DC
ED
EC
F8
0D
0E
F6
1D
20
FF
01
FD
1C
1B
FE
01
17
09
12
F6
0C
1D
F0
11
03
F3
0D
FA
12
19
09
09
0A
11
03
14
09
03
13
09
E0
03
11
19
F8
F2
F4
02
F9
07
FB
03
16
15
1C
07
F8
1B
05
EE
0D
F0
FB
EB
DF
14
06
FD
FA
FB
2C
09
05
05
07
08
D9
04
F8
FE
F2
19
1D
07
1A
01
16
22
1A
EF
F7
F7
17
0A
F9
ED
E4
E8
F4
10
F6
DA
FB
03
F8
05
1A
E9
FD
E9
F9
21
0E
11
F9
14
0A
0C
E7
FE
0B
F1
FF
E9
F4
F8
FC
D6
0C
2A
EA
08
F1
1F
02
F8
F5
06
24
0B
17
F5
1D
02
F5
13
F1
10
ED
F3
F7
E7
0F
1F
C1
EE
FC
FD
E6
0E
00
00
D2
C5
F5
09
03
0B
04
F9
0C
F0
0A
0A
F3
F4
F6
4B
01
DF
EB
E2
FD
2A
23
F4
F1
FB
FD
FB
D3
F0
0B
23
0E
E7
ED
0F
25
08
E6
07
D7
00
EF
00
02
F9
F1
E3
EC
EA
2E
2A
EF
FD
05
0A
17
05
F1
EF
F8
FE
F7
FD
01
F9
FC
F8
0E
FA
F2
27
05
12
EE
F9
19
EF
07
15
0D
02
FE
1C
F7
0B
F4
D5
0C
FB
05
22
03
ED
12
FE
00
00
E6
1D
11
0E
08
FD
10
F8
0B
F3
04
07
F2
E7
FA
F5
FE
ED
03
F3
FE
FD
23
0A
17
05
F0
19
25
08
E7
F7
DB
1C
08
FB
09
FE
0F
0E
0A
24
E2
0A
05
12
0A
EF
FB
FA
E4
FA
F3
0F
17
02
12
05
04
12
14
06
F5
F1
01
00
22
DA
F4
19
FD
04
FB
FD
E8
E5
F8
EE
F9
F5
E2
F6
1B
16
FD
E7
08
09
0F
FD
FA
F3
ED
F6
FD
04
E6
ED
F7
04
01
22
26
00
35
35
16
1A
03
EF
F3
04
0D
FA
D3
11
FF
DC
EF
EF
F7
F4
EF
00
0B
00
13
CA
01
04
E7
00
D8
FE
FD
ED
03
FC
07
0B
ED
0E
E4
28
E8
F8
D8
EC
03
03
0D
E5
E4
EA
E7
02
0F
2D
F6
FE
12
F0
13
F4
06
E7
FC
EA
FD
F2
03
FF
EA
11
FF
FE
E8
F8
EF
F8
E6
EA
0F
F1
0A
F5
11
FB
F1
0D
0C
0E
17
14
F3
11
D3
0A
FB
01
0D
F9
F9
EE
EC
19
FA
FF
F8
E3
0C
0C
FA
31
17
F5
FA
E6
ED
FD
0A
F5
ED
EC
EB
02
13
18
FB
0C
0A
15
23
09
FA
1D
1D
F3
EC
FE
04
2A
FD
FE
FA
F2
19
F5
16
F4
0C
0A
F1
01
D9
18
F5
09
1E
00
FA
02
0D
F5
FB
F3
17
EA
F0
ED
0C
15
DF
26
05
17
1B
04
27
F4
04
13
F6
EB
EE
16
0D
0B
05
E2
FA
0A
F5
18
37
FB
11
FA
F7
09
F1
EA
E6
EE
10
F9
02
07
2E
0F
07
F6
09
1D
10
FA
F0
E5
11
2B
12
18
F2
FD
FF
0C
21
25
1A
23
03
FC
1F
16
FB
00
F0
0C
10
FC
03
F1
F9
E2
F7
05
0F
D9
DD
FC
F2
00
09
13
10
FC
EE
07
08
11
01
F5
15
06
1B
03
13
F5
E4
FE
07
03
F2
00
0E
01
19
EF
03
0B
FA
CE
FD
FB
00
F9
07
F0
06
04
20
22
E6
07
17
1B
F5
E7
06
1A
29
E8
09
01
13
0B
0D
EA
01
05
0A
01
FD
19
34
0A
E8
EE
F7
E4
E9
F9
08
1F
E7
FE
E0
12
05
EB
04
09
FE
FF
09
ED
02
08
F7
01
0B
01
F7
08
05
0A
03
FE
00
EE
F9
F3
1E
F9
00
25
0C
36
FD
02
F9
F3
17
0E
EF
0B
02
CF
DC
E9
2C
0F
0D
F8
E9
EF
08
FF
F0
E6
0C
FC
0A
0D
0E
16
13
08
0F
00
0F
F4
EF
06
F2
E2
F1
FC
FB
FB
D9
EA
F6
18
34
1D
0D
E7
0A
20
07
1F
04
E1
22
17
33
09
43
35
25
04
21
2F
15
12
08
17
00
10
09
FA
2A
09
09
0A
10
15
07
FC
FF
F0
24
FE
1D
21
FB
F5
FA
06
03
EF
DE
EF
0C
F2
F0
F7
0D
FC
F1
1B
19
23
0E
11
0B
0E
F0
FA
E9
FC
DA
D7
EA
F5
18
EC
01
0C
F6
FD
E6
F2
0D
00
FD
F7
0B
16
0C
14
F3
06
0D
20
10
03
01
20
30
26
CE
00
2E
0C
0F
EA
0D
0E
10
FE
2B
2F
07
19
DF
18
1C
FC
F3
E4
E3
05
F7
F3
F0
F7
F9
0B
03
02
F3
EC
F8
16
08
FE
FB
03
EF
FC
F1
E2
F8
0D
09
1F
0C
F4
04
2D
1D
14
1D
18
1A
2C
27
01
0E
E7
0E
FE
0C
0E
FB
FA
16
2C
1A
11
EB
FD
17
F7
DD
EB
13
27
F0
FF
1B
04
0A
F7
E9
E9
08
EC
FF
04
12
3B
F6
DE
FB
FA
13
0E
E8
F6
0A
14
0A
F1
01
08
14
F9
03
EA
E5
08
06
00
09
0C
16
24
28
12
F7
2B
0B
FF
17
0A
0D
F4
E6
0C
01
E7
E7
FD
07
FC
EA
04
15
02
F9
00
0A
09
11
E2
08
F9
F8
18
13
2B
EE
DD
FA
E9
0A
05
03
12
F6
FF
10
11
1F
02
0F
04
01
07
27
10
FA
E7
E1
20
1D
10
09
12
00
25
07
1A
13
11
0F
E0
01
0A
03
21
F6
E9
F7
07
2C
19
01
F0
0B
1E
06
E9
00
FE
21
11
24
07
06
06
17
02
F4
EE
14
01
02
20
08
17
FF
0D
FA
1F
2C
0B
0A
FC
E8
19
F3
00
00
0D
26
FC
EF
EF
FE
09
18
F3
FC
F0
10
22
0F
13
01
F2
F4
0D
09
CF
DE
03
F7
F2
09
06
0F
10
F2
CB
CF
FA
F3
10
F4
E5
07
E4
02
05
05
FB
EF
F1
24
FA
F1
F3
13
F5
FF
00
07
13
0E
12
FA
00
ED
0C
0F
BD
23
48
21
04
EE
12
1C
09
17
D6
08
22
FF
ED
E2
E6
F5
E8
FC
09
02
0A
C8
FA
06
F8
06
F7
FA
ED
CB
FF
F4
E2
0D
EE
F2
EE
FC
27
0B
F8
FB
2F
F3
E3
EC
16
1E
0E
D4
F5
23
2D
F7
03
03
0A
1C
F1
F4
F4
10
15
F4
DC
EE
04
0C
03
F5
0C
00
F2
FC
02
26
0F
03
07
D7
DC
00
06
0A
04
07
03
03
0E
F9
1F
0C
0E
42
25
F7
08
3F
11
1C
0B
03
16
F4
0F
17
F7
EE
F1
CB
05
DF
FB
0B
E5
0D
FA
FA
0D
00
1B
03
E6
ED
15
2D
02
EB
CF
E8
00
FC
F5
00
09
F1
12
15
06
15
E5
0E
1B
23
0F
11
EB
12
05
04
11
FB
FC
E9
02
1D
D1
E4
01
F5
17
04
11
F5
F4
0C
0D
2C
17
EB
ED
F9
12
13
FB
13
ED
17
14
0E
06
12
EA
08
E9
EB
05
F9
FF
F3
DF
F9
F1
FC
01
0A
F4
F1
FC
F6
F8
F7
F4
FF
00
FE
08
FC
07
F5
FD
FE
FE
F3
F3
FD
FF
0D
F5
FA
0B
F1
F5
F8
03
F7
FD
07
05
0A
FA
02
FF
07
0A
F4
0A
03
09
07
00
FD
05
0B
09
02
09
EF
07
FC
FC
05
FC
F7
F2
F7
F4
FC
F9
FF
F1
EF
08
F2
FC
03
04
08
F0
FF
FC
01
04
09
04
08
F0
F3
F3
01
FE
0A
00
FD
F2
FF
07
F2
0C
F0
FA
EF
F7
FA
03
F6
05
00
FC
09
F2
FB
F3
F1
F2
00
FC
F7
FF
F8
FF
F1
0A
05
F2
0E
F8
F6
0A
FB
07
01
FD
FE
01
F5
F5
01
0B
FC
05
F6
FA
00
02
06
F7
F8
EF
F4
F8
0B
F3
F6
07
FE
F8
F2
02
FF
F2
05
05
07
F0
FB
F2
FE
F8
01
FD
FD
07
0A
0A
0A
04
F4
00
F2
F9
08
FE
FB
FF
07
FD
F5
FD
F1
0A
F6
09
06
FA
FE
FC
FC
F7
EF
FC
F6
EF
F9
EE
FF
F9
F5
0E
04
03
F8
F7
0C
08
F3
05
04
0A
05
00
03
0A
F8
FD
09
FE
0B
FD
FE
0C
F3
02
FC
01
FB
F2
F3
FA
FE
F3
09
F3
FA
EF
F5
08
09
09
0A
09
08
F1
F4
F7
F0
F8
EF
FA
F7
FE
00
0C
04
F8
0C
F4
F2
FA
07
F7
FF
F4
F2
04
01
07
FF
F2
F0
EE
0B
FA
07
F3
F2
07
F7
01
0A
F7
04
FB
F7
FF
FA
04
09
07
F8
02
0E
01
09
0F
EF
FF
F6
05
09
F6
FA
0B
F8
05
02
F3
F5
F4
FB
F3
FC
03
0B
00
09
00
09
F2
05
00
04
EF
F9
FD
05
FB
FD
FD
FA
F1
07
F1
EF
EF
F9
F1
EF
07
F8
F6
F6
02
FF
09
FF
FD
05
09
F1
F3
FD
F8
F8
FB
FE
0B
02
FA
00
05
EF
F4
F0
F8
F2
04
01
FA
05
F3
F2
0A
0C
F4
FE
FB
F8
FF
FD
F6
0A
F8
06
EF
F4
FF
F4
F2
FB
09
01
FE
F6
F7
EC
F2
F9
F1
00
F1
0B
FF
FA
07
FF
F1
FC
F0
F8
EE
F0
08
F7
FF
F8
F2
F5
04
0D
FF
08
F7
0C
00
ED
07
FB
00
EE
FC
F9
F6
FF
F3
FF
FE
0B
FD
F4
FF
FA
00
EC
00
EA
F4
F6
F1
F4
03
06
09
F2
F4
FD
FF
F6
06
FA
0A
F5
FC
FC
F7
F9
00
0C
F7
F6
0C
F9
FE
F2
05
07
08
F7
F9
FC
F6
EF
EF
F7
F0
FB
F0
F5
F7
00
F2
02
FD
F4
02
FE
03
FD
05
09
F3
08
F2
F5
0C
F4
05
F1
0B
FC
07
F8
01
F3
F1
ED
FB
04
F5
07
EA
F6
02
ED
FA
EB
04
F7
02
FF
05
F1
F4
00
0B
0A
04
09
EE
F2
FF
F6
FC
0C
F2
00
09
02
F9
F5
0B
FF
F8
02
FD
0A
F9
02
0C
0A
FB
0C
08
FD
0A
06
EF
00
F5
F9
EF
02
F6
04
F5
03
F0
FA
F4
07
F0
0B
09
F9
F0
F5
F1
07
FA
09
FC
FF
FA
09
04
FD
EF
04
F2
F5
03
0A
08
09
FD
F2
FB
08
0D
FB
0E
00
F5
F5
01
FE
F0
F2
F9
0C
F1
F4
FA
EF
F0
F2
01
F4
00
F6
04
0B
F3
F6
F3
08
01
FA
F5
06
01
0A
F3
05
03
F9
F0
06
09
FF
05
04
01
F0
F1
FF
EC
02
F6
FD
F3
EC
0A
04
04
03
FF
F6
F1
F9
F6
04
F6
FE
F9
FF
FF
FA
FF
F4
FA
01
FE
FE
F4
F1
0A
F7
FA
EE
0B
00
FF
F2
F4
0C
FE
0B
FD
F5
F5
07
09
FB
03
01
06
F1
F6
08
EC
FB
06
F4
F1
F9
07
F0
02
FA
FA
06
02
08
05
F6
08
09
F8
06
FF
07
FD
F5
05
00
F2
FC
0A
03
F1
F7
F4
03
F0
FB
FF
01
FD
F6
FA
07
F6
0A
01
00
EE
FB
0A
01
01
F4
0C
FB
F8
07
FE
09
09
06
F3
F9
06
05
03
05
F9
FD
FA
01
0C
F1
FA
0C
F1
FC
F6
05
0C
F0
0A
1C
54
1B
07
0C
18
0B
07
DA
06
21
1D
F8
DC
18
CF
E9
E0
04
0C
02
F7
08
11
FB
18
FA
03
06
03
ED
06
0D
01
DB
DB
F0
E5
F2
D3
DC
F9
FB
05
15
FB
18
FD
04
08
F0
DE
F8
01
02
F3
01
F7
F3
EF
09
19
E7
10
23
F3
0E
0B
F9
FE
D4
EE
0C
F8
F4
0C
09
0E
17
0D
24
07
17
03
15
0C
18
0A
0C
10
2A
00
D6
F0
0A
1F
F8
F6
F1
0D
FD
1C
0F
27
EB
18
09
14
24
E6
1F
0C
23
08
04
06
E1
E4
F4
07
DA
CF
D4
F1
00
FC
FE
F8
07
19
08
FC
F2
17
19
D0
FC
18
11
FE
09
02
F3
F1
07
17
FA
DE
F1
02
14
E0
0F
0B
F7
EA
E1
E9
F9
DF
E3
EC
02
F3
18
DE
02
28
1B
1B
EB
F1
04
0A
F5
27
20
F1
F3
0A
FA
F6
0C
F8
E8
04
01
05
F4
E8
19
01
02
05
01
F1
14
F8
FD
2A
ED
08
E2
00
03
01
F7
E2
1F
0D
16
F8
F3
FA
42
04
ED
F7
19
0D
F3
0B
FA
FC
B5
F7
BE
AB
D7
FD
98
A2
F0
ED
E7
BC
01
FE
D0
FD
F3
0B
05
07
10
F3
14
0B
14
18
2B
2D
27
13
23
30
1E
17
FE
1B
44
16
05
DB
01
34
0C
E8
E8
0B
05
EE
FA
FE
03
01
F7
FE
F9
13
0F
04
16
19
1E
26
14
1A
15
08
2A
EE
FC
09
09
05
F5
03
DD
F7
06
1B
13
0A
2E
18
00
10
FE
0F
FD
E7
DC
05
D9
EA
F8
D2
FB
02
EE
ED
FF
10
11
E6
CE
DD
EF
F0
EC
B8
CB
05
12
0B
09
FC
F5
05
0E
17
10
13
09
1F
FE
FB
02
FA
14
DC
FA
02
F4
BA
EE
EF
EA
E2
C9
F1
D7
F0
E8
FB
05
E4
0A
F0
0B
00
FB
09
05
16
22
DD
00
0B
D8
F9
04
E3
14
24
FF
FA
11
15
02
08
E7
02
03
2F
10
ED
00
FD
FE
10
13
10
21
21
10
21
E5
08
0E
FB
F3
ED
EA
E4
EA
D5
F2
F1
11
11
F5
02
09
63
0B
02
FA
E4
1F
2C
17
F3
D1
23
0B
F3
D0
DF
EE
03
EA
F9
1D
07
24
00
04
11
01
01
FB
0B
F9
EE
09
F0
F5
ED
0F
06
F9
E7
FF
03
19
0D
06
07
0A
02
05
10
0F
07
FC
01
11
FD
F4
0A
28
05
05
F1
F0
0E
17
09
02
FF
FC
06
0E
FB
E6
E5
FA
01
FA
F7
F5
EC
FC
F1
09
06
D9
09
24
29
FE
03
1B
0F
0F
F3
36
03
0A
10
FF
E4
F6
F1
FF
0E
02
0D
03
F2
FD
15
08
EC
FB
01
F3
10
05
F5
FE
EF
FE
FF
0A
06
0D
18
0F
0A
00
1A
19
08
FB
10
E5
EA
E7
C5
F3
18
FF
0E
EC
F1
1A
20
04
FF
16
12
24
14
21
01
FF
F9
0A
F9
07
F9
0B
03
F2
F5
E8
03
D7
F7
1F
F0
0A
08
19
07
0F
20
0C
FF
02
FF
F4
F5
0F
F8
00
29
15
E8
F7
2D
37
17
15
FC
00
08
1D
F5
F1
FF
2E
09
FE
F9
F8
F5
19
11
FE
EB
0A
B8
CF
F7
D6
F5
E5
E3
01
14
14
0A
FF
0F
13
06
F0
03
06
F9
0D
0C
FA
00
0C
12
F0
EF
F4
F3
0A
01
01
EF
FF
02
07
01
E3
F3
E3
F9
F1
E9
F9
F5
EF
01
0E
00
FB
06
03
1E
04
F7
FE
EE
0A
13
14
09
FB
16
13
0C
F2
11
0A
F9
FD
1B
2A
0B
FC
0C
10
FF
07
FB
0A
E4
0E
ED
D8
FC
F7
31
0C
05
0A
EB
E7
EF
05
02
D6
C1
E7
E2
E8
F9
D7
FA
F7
FC
1D
03
F8
23
26
06
0A
01
1C
1E
1B
19
05
F7
DD
0F
10
17
F6
D7
D3
FE
F6
FA
F4
FC
0B
03
F5
1C
10
0B
F6
05
FF
1B
F1
E7
1A
17
DE
E7
FB
0A
18
DE
DF
EC
FF
15
03
EF
EF
FD
0C
F5
05
0F
F5
05
FF
FC
FB
F6
F7
FC
F8
F2
F8
FC
0D
F3
F6
FB
F9
F8
E9
01
F7
FE
01
05
05
07
EA
F2
F3
F9
FD
02
F5
F4
F6
05
FB
FC
F7
EA
F6
FF
FC
03
F4
EE
07
FE
03
EC
F1
02
FE
01
FC
FC
EC
0C
F7
F1
F4
02
0D
00
F3
03
FB
FC
FE
0D
F4
F1
00
F1
F3
EF
FA
F1
F7
F9
09
04
00
F1
E9
EF
01
01
E9
01
FF
07
08
F6
FC
FF
08
F3
02
FD
03
FF
EB
01
F0
09
F5
F5
07
09
03
FC
F3
0E
09
F4
F9
F2
07
F3
F2
F8
07
F1
04
F0
00
F9
EB
F6
02
F3
FA
F4
F5
FD
EC
0B
F7
F5
EB
F8
08
02
F5
F9
EB
F5
F8
EE
08
FF
FF
F5
F1
FA
03
F1
05
0C
08
EB
FD
FC
02
ED
F1
F7
06
0D
F5
EB
0D
00
FB
F4
EF
05
F1
F1
F2
0A
0C
FD
00
FA
04
F9
FF
04
F9
F6
FB
03
FB
EF
F1
02
F7
01
F3
F3
FE
E7
EF
03
F6
F2
FB
F5
F1
F2
F6
FF
F2
FA
F9
EF
FB
F5
F0
07
FE
00
FE
ED
F2
F1
F4
FB
F6
EB
F6
09
04
FE
00
08
F4
E8
01
01
0B
FE
E9
F4
02
F8
F7
FE
EA
F7
FD
FC
FE
F7
F8
FF
F0
F2
F9
FB
FF
FE
F1
F1
F1
F4
F7
F3
F2
E9
FB
F9
00
ED
F4
FE
F5
F5
E7
F9
0A
F4
E8
04
F4
FA
01
FD
E9
FD
F8
00
E9
F4
FE
07
FB
F2
FF
EB
01
FF
0A
FC
F2
F5
F2
FB
EF
EB
0C
F6
03
0C
04
02
E8
EC
00
03
FF
F2
FD
FD
F3
F5
EF
EA
01
EC
F3
F5
F4
F3
F7
EE
F8
E8
F7
FE
EF
04
F9
FA
FE
04
EC
01
03
E9
01
F6
00
F4
0A
0F
07
F4
F9
F8
F9
03
FA
07
04
E7
F8
FE
F7
08
ED
E7
01
02
02
02
03
03
F2
F8
FC
00
E9
07
F5
F5
00
F9
FA
08
F8
F5
E8
F3
01
FC
F3
FE
07
04
23
27
FC
EF
E0
FA
0A
05
E3
E1
E8
F0
FD
F0
FC
DD
0B
07
12
FD
F9
F8
1C
F3
F4
DD
0D
2E
53
2B
EC
2D
3C
30
35
0C
05
06
EA
F8
D2
EF
F6
FF
FF
00
0D
0B
09
E1
00
10
09
03
1E
0A
17
21
14
0A
DD
04
00
03
16
F4
1E
04
0E
EF
EA
F4
0B
14
0F
07
26
13
0D
08
32
12
13
F5
D4
25
09
FC
D7
E6
EF
F9
EC
E2
E9
FC
E9
DD
EC
02
04
FF
0D
E0
CE
0A
17
1D
CA
CE
F0
0D
31
F8
0D
FC
F2
0E
05
21
F3
FE
FE
19
11
EF
F0
E4
EC
F8
EB
DE
0B
04
09
08
09
00
05
03
EE
FC
0B
11
FF
F7
F7
E4
F2
08
F6
03
FF
FD
FF
07
EC
F6
01
22
00
10
F6
1C
0F
07
00
14
FF
FF
F6
07
09
F1
0C
00
04
0F
14
1D
F4
FC
07
F7
02
FF
FF
00
F2
E4
FC
01
F2
08
FA
F5
17
02
04
0F
FD
EB
F2
ED
F9
0A
F5
D2
F9
44
0D
03
01
FA
38
10
18
E0
E8
2D
EF
F5
F9
E9
0B
E6
E9
0B
2B
23
E6
0D
08
05
08
11
0C
FD
D8
C3
0F
E5
FA
F1
EE
F6
F9
FD
0A
05
12
1F
11
0F
E2
2B
17
11
D1
AD
12
FF
0C
DC
EB
DC
EC
EF
FC
F2
E2
F0
EC
E2
F8
07
0C
00
11
F9
14
0D
0F
05
0F
0A
FA
0A
ED
01
ED
ED
10
06
F7
03
EC
09
F1
04
FF
20
18
13
21
00
32
22
2B
27
FF
1F
EB
F9
16
F1
01
FD
DF
FE
DD
0F
17
FE
FF
E5
DC
E6
F0
0E
0F
F8
DD
FA
15
00
04
0A
F7
FB
F3
02
10
F9
0B
DD
04
06
F9
00
ED
F8
25
33
23
EF
05
17
25
25
0C
E4
02
0D
23
F5
01
FF
DF
E9
F4
F4
F8
EE
F5
FB
21
03
FF
E2
00
E5
EE
CE
E5
09
0A
1F
E7
F0
05
FA
FC
0E
F8
00
F5
EB
EB
F4
0D
F2
ED
0A
0B
10
EF
0D
16
05
F6
E4
01
1F
16
D6
DF
06
15
F6
F8
1D
0B
FD
EC
EF
DD
F7
B8
D3
DF
01
E3
ED
04
DB
0D
09
FC
DE
FF
FF
10
0F
FA
F7
0D
10
F6
F4
F8
F5
F4
07
07
F0
FB
FC
06
EC
0A
F3
D8
F2
F2
F0
E4
FC
12
FB
10
0F
F6
E2
F2
EC
EA
FD
F3
1B
01
F2
0F
EC
0E
EC
01
03
F8
1B
03
06
05
1D
FB
F7
F1
1A
1D
05
FC
FF
09
15
12
FC
14
ED
01
26
01
FF
E7
17
0D
F9
E7
02
E8
F3
07
0C
03
05
FF
03
09
00
05
FA
0D
03
F7
F8
08
CC
EC
EE
01
EF
1B
FD
EB
F1
07
1E
10
FA
0A
F0
F4
EA
F7
E9
0A
D9
DF
FA
FB
FA
FA
08
12
F2
02
01
18
31
FF
02
11
02
1C
F8
EC
04
03
0C
04
10
FE
F3
0A
12
0D
F7
FA
0D
05
06
02
F4
03
02
15
1C
13
00
F1
F4
F1
F4
FE
11
07
F8
F7
12
DF
D8
05
D0
03
EE
DE
E3
E4
2D
2F
CD
23
13
27
FB
E6
FF
F5
02
0A
21
C5
C7
ED
09
FF
DB
1A
FB
14
26
11
22
13
FF
18
16
03
DE
00
05
E3
EF
FC
E6
0D
DC
F3
0F
06
0F
06
F8
10
14
00
EB
F0
F4
25
07
FC
03
23
18
00
D8
02
F1
07
1A
EE
FC
1F
00
E2
07
10
F1
DF
FB
F4
EF
DE
FB
16
00
0F
2B
06
00
1B
20
12
E7
EA
1E
DC
02
F7
0E
ED
E6
19
1A
DA
F2
0F
11
18
01
13
03
FA
23
00
D9
EC
03
F2
F2
02
F4
FF
FE
0A
1A
13
13
EB
EF
15
F4
04
F6
FC
00
03
EE
EA
E9
07
DE
F3
F0
FF
EC
F8
FE
E9
0A
0F
1D
EA
EA
D1
31
2B
F1
1B
10
FD
E7
E9
10
06
EF
D5
FB
08
0D
F1
00
F0
15
0D
27
18
F8
17
03
19
0F
E1
11
F3
F5
08
07
EF
F9
EB
FD
11
13
28
E7
05
F4
05
02
EE
DB
1B
F9
E9
F2
22
04
E8
DC
00
1A
01
01
EE
3C
25
03
E3
D2
1B
2C
25
EB
EA
2F
1C
F2
FA
10
11
12
FF
F9
06
FD
16
09
0F
09
FD
FD
12
17
E7
EF
01
00
EA
FF
21
08
02
E5
E7
07
1D
0C
FB
07
1F
0C
21
04
15
EA
FD
F8
FA
D1
C7
F1
FF
03
05
EE
DC
03
0F
11
E5
E3
FF
E4
EB
11
EC
F7
CE
CD
E8
E9
0A
00
07
EF
E7
0A
12
10
FF
15
0B
1D
02
FA
F6
EB
18
07
FB
02
0A
FB
EE
F4
E9
0B
13
0D
EC
F2
FD
F8
05
01
FB
F7
CB
02
F8
D6
05
EA
DF
15
F7
09
05
E7
FF
0F
10
0B
0E
34
0C
FD
0E
FD
16
ED
D9
0A
04
23
FD
ED
11
18
2C
00
0A
20
2F
13
26
15
12
FC
14
18
14
03
17
14
07
08
0D
0A
DF
07
F8
FC
0A
15
07
06
FB
F1
EF
EC
F3
13
F6
EA
E8
26
05
D6
EE
13
46
05
EA
0D
09
2C
E5
2B
10
2A
09
16
47
16
42
27
0B
DD
38
3C
F7
F9
0E
2B
07
D6
09
07
09
F7
EE
1C
0B
14
0A
F4
15
F2
D2
E0
F5
FC
0F
CA
E6
0C
14
18
C3
CD
EE
04
F4
E6
E7
05
F9
C0
21
09
F9
F2
C0
EF
E0
FB
11
F7
D9
DE
E7
08
FC
E7
E5
18
12
01
ED
FF
26
FF
1D
06
F8
0B
FB
FC
F3
F8
0F
12
03
06
28
0D
2F
F4
06
0B
05
FF
22
D5
FE
F9
DE
ED
FF
1C
09
06
11
FD
FA
0F
26
0A
BE
C6
D6
DE
DF
E6
CE
0C
F1
DC
05
F3
03
23
1D
18
0A
FC
EF
15
15
1F
00
E7
B9
2D
1C
17
F9
09
10
FE
22
0E
FD
F2
FE
2A
FF
1C
14
09
1E
02
16
0C
05
FF
28
28
D4
D1
F9
12
FD
DB
B3
F9
06
D6
16
05
08
FD
F0
0D
1F
F5
1F
F9
15
28
16
02
FE
1F
14
2B
F2
02
F6
E5
F6
09
1A
BF
CC
0C
18
0A
DE
05
23
00
06
15
FC
07
EA
EA
F2
02
12
14
07
F6
EF
EE
E1
C6
C3
02
06
FD
E5
FD
09
16
0D
02
E7
05
0C
0C
02
00
0A
FE
FA
F6
DE
EE
E1
F8
0B
ED
F8
F6
10
05
F2
19
F6
FE
EA
09
ED
05
07
1F
0B
05
1B
0D
EB
EF
1C
F5
FF
EB
F3
0B
F3
FA
0D
FC
EA
F3
F3
FF
FA
0D
11
07
EE
0E
30
11
F0
02
08
25
15
14
3C
DF
E5
F6
21
08
F5
01
00
FF
F9
F5
03
FA
F0
19
00
EF
FA
0B
04
DD
FD
FC
16
F3
28
FC
F0
EB
FB
31
22
E6
E5
07
F9
0B
14
02
F5
DD
F0
EC
F1
1A
C3
F9
00
F2
F8
12
03
2F
FC
F3
FB
0E
10
EC
DD
19
0F
FF
F4
F3
E5
E5
07
F2
0C
CA
F1
09
E0
E8
FB
F7
FA
F5
06
FD
FF
FA
09
01
F6
05
E9
04
FD
F9
0B
E9
02
14
01
E1
F2
23
52
FB
0B
09
11
FC
F8
1F
06
EB
C8
F6
E7
E3
F6
07
D0
D0
0F
08
1C
B2
02
10
CE
14
0A
13
1E
FA
24
E9
F7
F5
F8
0D
FA
0B
0E
0B
1A
22
0C
05
F6
F3
09
07
FD
FA
FF
FF
F2
F9
17
06
DB
F1
07
EE
01
F2
09
00
FA
09
03
07
18
FE
05
0C
0D
09
E4
E6
FF
F2
E5
FF
F4
F4
D8
15
14
0D
0D
2F
32
0D
FA
17
28
07
20
27
F1
D4
E3
FC
11
C4
00
03
FF
F8
EC
08
2E
07
F9
E8
D5
E6
FD
10
E8
F5
F9
03
21
08
0F
FA
FA
F1
1E
12
04
FF
E7
0B
04
13
FB
E9
05
E9
09
16
04
E1
E7
0B
08
06
BB
FE
FE
FD
EA
1A
44
F2
15
EE
F4
E9
F5
08
02
EA
F0
01
09
01
CD
D6
0E
FD
01
0F
06
2A
0B
1E
07
F2
FB
12
0D
04
ED
FA
DD
E1
01
DA
00
F7
F5
FA
10
16
18
04
11
F4
ED
FD
22
FF
C8
EC
03
18
E3
F6
02
08
18
F2
EA
FF
0A
06
0B
FF
10
F3
F8
0B
0D
25
FE
FE
EE
12
17
04
FC
D7
F3
0E
15
F1
F9
0B
FA
14
E5
FD
1B
0F
FC
FB
ED
E7
0B
13
19
E0
D3
EC
FF
F8
08
1A
23
1B
FE
F8
E7
F4
ED
EE
F8
E8
FB
F0
E5
F4
E9
FC
E2
E9
FE
FC
DC
FF
FE
E8
CE
FB
13
00
F9
E8
E5
01
10
FD
07
E6
D9
1D
F5
1E
F1
F1
07
E0
EB
02
09
09
05
1C
0A
15
F4
F9
FA
FB
FB
0F
DB
ED
13
0C
F4
E8
CD
E7
1A
F2
28
00
1E
16
0B
37
22
2A
F7
FE
02
04
ED
FC
02
1B
FC
03
0D
F4
D8
EC
EC
F0
0F
0A
FC
05
EA
F8
00
15
1E
07
E8
34
F4
F8
F6
F4
05
08
0C
07
1B
F0
F7
16
F2
04
CE
EA
FF
01
FB
07
FE
F4
0C
01
0B
F9
01
02
F7
01
03
0E
0D
0D
D7
E0
CD
F5
1D
F0
06
14
13
EC
04
08
1C
FB
15
0B
02
10
0D
00
1B
08
06
FF
13
D9
F4
19
EA
0C
02
0F
15
FA
F2
F3
F3
F1
F3
EF
DF
C9
EE
E0
FA
23
01
F2
04
F3
13
F6
03
02
00
F5
CD
E9
0D
17
D4
C6
ED
FC
0E
E9
06
0D
06
06
FC
F7
04
EC
18
FA
FF
01
16
03
E3
E5
E1
ED
01
D0
E1
03
15
12
FA
FF
0A
EF
05
04
0A
F0
F4
FB
EC
E4
F1
ED
F4
E2
F1
FD
F7
14
FB
27
11
15
0C
F3
00
FE
FD
18
F4
F7
F7
2D
2D
01
10
0D
06
07
06
0C
20
F8
EE
15
12
0D
FB
D8
03
01
08
1C
0C
16
FB
06
FF
F0
CC
FF
0F
ED
F1
FC
15
0E
10
13
E9
F7
F6
FE
FA
14
FE
03
FB
01
CB
DE
17
15
ED
F6
FC
00
FE
22
24
00
0C
EE
23
0D
0F
1F
02
E0
14
28
2C
07
FB
02
23
23
10
10
0D
35
1D
15
18
FA
2B
18
FE
F3
12
0C
0F
F7
FA
DC
05
0F
0A
10
10
15
02
F5
0C
19
1D
F5
D8
F4
18
0D
E3
D1
E2
FB
0D
F9
06
FE
D4
E8
E2
0D
14
FF
FE
16
05
E8
06
0C
E2
DE
E6
F2
E3
E5
DA
D5
0D
F5
F9
E7
E0
F3
F9
E8
16
00
FD
D6
0C
08
D9
E6
EF
13
00
DB
F6
E9
0F
02
F2
02
00
06
E5
EF
F1
F9
1B
FD
F5
F4
09
22
1E
FD
12
0A
0E
1A
05
F5
08
FC
05
FE
FF
04
13
03
F1
F3
06
EF
FB
09
24
F9
00
EF
CF
08
CC
F5
DA
00
0C
F5
F0
EE
FB
15
0C
16
03
EF
DF
ED
09
1A
14
02
12
01
1E
12
2A
F4
D8
E8
EE
12
E1
D0
E0
D0
1B
03
EE
12
16
E5
DE
F0
0A
08
07
F6
FC
E8
05
05
05
E7
E6
F6
0E
F4
D3
FB
F1
EE
04
E8
06
FD
ED
FB
E6
F0
ED
FA
27
15
14
02
14
1C
17
02
DD
EF
10
08
E6
F5
01
25
3C
2B
13
F4
EE
02
F8
FF
FB
1E
12
1E
28
26
12
E3
20
07
0A
EC
ED
14
0F
19
11
0C
1B
F5
FF
FF
16
08
1A
10
E6
09
04
EA
0A
0C
1C
15
01
05
16
10
04
F1
F8
00
F9
FB
DF
F9
F0
FD
11
FF
F0
FD
F8
04
FE
EC
13
0A
DF
D2
01
06
02
E5
05
E4
06
EE
E3
F7
EE
20
1E
F4
13
06
0B
24
36
24
FA
FD
2D
33
16
0B
FE
02
F3
15
08
FF
F7
F2
FF
EE
ED
F8
15
FA
02
EF
F9
F4
15
0F
FD
F6
DD
01
FE
FD
F2
FC
F3
10
02
08
FC
FC
E0
EA
F5
06
F9
FC
FC
07
11
19
0E
DF
08
04
10
F8
D0
0E
01
0D
01
12
2B
02
0E
FD
F7
15
02
16
05
DD
30
12
0E
09
0C
20
08
06
0A
10
19
00
E7
08
FF
0F
FC
FF
0A
29
0F
0B
22
22
1B
F4
F3
0A
1C
12
08
F4
F4
08
FF
0F
11
F8
18
EE
07
16
EE
08
1A
FD
FA
FD
1A
10
14
04
FC
FD
F7
DF
07
17
F0
D3
DF
10
26
F4
E3
D6
E7
FF
F7
F4
0D
0A
0B
03
07
FB
06
12
F4
FF
EB
FF
01
12
FC
09
FD
E6
ED
D3
EB
DC
D7
0B
0C
04
18
0D
0A
F9
11
0F
1B
0A
01
04
22
1C
FC
F8
EF
00
F7
FB
08
0D
D2
CA
04
19
03
18
15
03
10
0E
2B
EB
EF
EF
19
FE
F2
27
02
0B
F3
03
01
F2
E2
FC
07
00
03
0B
09
20
0C
FA
FB
06
FF
F6
28
FB
E7
F7
F7
EE
EB
F1
E3
C4
F7
EC
EA
DE
05
F6
FC
04
02
04
02
E9
13
13
0C
05
FB
0E
01
0A
09
10
0D
0B
E3
F1
E8
FE
0C
EC
E9
1B
FC
06
FF
0A
07
F9
01
FC
04
EF
F9
F7
F3
E4
FB
FD
0E
ED
FE
E6
FA
F8
FD
12
04
F6
1C
00
11
08
01
04
F7
2D
10
E2
0D
24
2B
0F
ED
F4
E4
E2
F2
E1
D7
F4
10
02
05
01
1D
15
F2
E3
F3
1B
0A
FD
F6
F8
F9
EA
FB
1C
0B
E6
D4
10
29
08
41
2C
22
1B
F1
08
17
0D
03
1E
00
10
F6
FC
1C
0F
FC
1D
FA
DE
25
17
1B
F0
D0
09
09
05
F6
06
18
02
EE
00
2B
EC
F9
08
07
1F
04
04
10
17
F9
05
09
D1
D4
CA
0D
FA
09
2A
0B
F6
F6
10
26
09
1C
12
E6
EE
02
17
F3
F7
19
0E
F1
E2
FC
19
04
0B
F2
EA
E4
F1
08
01
FE
DD
D5
F6
03
0B
E3
04
F1
03
F9
FC
F6
E6
0C
0D
FA
03
00
F9
10
0B
08
01
14
0F
03
07
FA
F1
E4
F3
ED
02
D8
F2
05
FF
EE
02
F6
E7
FD
0B
0D
F6
F7
FC
20
29
08
FE
08
25
E1
F5
FE
E0
F5
F5
E5
11
E4
C8
E6
01
08
FB
F9
EA
BD
0A
FE
E9
CF
DF
0D
F7
F4
E3
F7
F2
DC
12
05
F9
F1
EF
FC
D7
E6
F5
F6
1F
18
F9
04
0C
E0
ED
F2
F5
EB
E0
DD
F0
22
12
F5
FF
E8
0A
12
F6
08
F6
02
15
F9
0E
16
F7
01
03
F7
F4
FD
F3
15
24
16
11
02
09
13
FD
08
09
E7
E0
F6
1C
1F
F7
1A
12
07
E2
FC
18
FB
05
0F
F9
FB
FA
01
F4
07
0D
17
D0
F6
1C
27
FE
EF
04
16
20
F9
FF
0F
01
FC
D7
02
07
1A
EC
EC
DC
E2
26
21
CD
F9
08
F5
E9
AF
FA
07
EB
00
FE
15
E1
09
0B
00
03
09
14
2C
07
E5
18
C4
0A
15
12
17
F2
08
FA
EB
F8
E9
0F
0C
0F
FD
F4
EA
ED
FE
EF
14
0C
1E
F9
16
FD
11
07
F6
12
ED
F5
F8
0B
1F
F0
06
12
19
F9
03
13
11
0E
03
06
02
07
1F
10
F4
16
1F
0A
01
FC
0C
15
00
F0
EF
F9
ED
0B
02
FA
EA
FE
ED
DD
26
1A
0F
F2
D3
0D
F8
CD
E2
0A
E5
DF
D0
F0
16
F3
E3
F9
FA
16
00
D9
E8
E8
F4
F7
EB
F2
08
F9
D5
04
FD
0A
05
EF
0F
27
0D
04
D8
07
F9
01
E4
DB
00
07
14
FC
E9
EC
FD
FB
F6
1E
0B
10
DF
EB
ED
17
FD
F6
00
03
EA
0F
07
EF
FF
00
F8
03
E5
00
00
F5
0E
15
24
2E
05
06
0F
05
03
F7
E3
FE
14
04
C9
E1
EA
E8
E3
E9
F0
08
20
F8
E9
F6
F3
21
E6
F7
F7
F4
02
E2
ED
DE
09
DF
FD
01
FB
F1
06
20
15
E9
E4
18
E7
F7
06
0D
10
07
F7
FE
1D
0F
08
06
03
15
EC
FE
F1
02
0C
F3
04
04
F6
ED
0A
F9
EE
07
14
E4
F1
FB
F7
03
1C
0A
F7
F4
2B
DC
DD
F4
0B
EE
03
03
F6
01
1C
14
F6
DE
F7
F0
FC
0C
12
01
00
2D
16
01
FB
18
