22
0A
F6
1F
03
DB
FA
22
29
C0
0B
E8
11
02
1C
2F
E0
EC
0E
28
FE
DA
26
DC
1C
ED
E9
0B
08
F4
FE
F8
FB
38
0A
03
D5
22
F0
0E
EB
EA
06
45
D6
1E
DB
F1
00
B9
DB
02
DC
EC
F9
09
FA
29
0F
1F
1D
E6
05
EB
F4
E5
1C
13
1A
F5
F2
2B
0C
1B
11
FD
17
D8
1E
0A
12
E4
29
2E
F0
E1
FC
D2
EE
FE
05
E8
18
0C
FF
19
11
F7
09
F0
F0
0E
E9
1E
F8
08
1A
F4
F9
F3
C6
02
2F
EF
CC
20
CE
EA
30
0E
FA
ED
E0
12
E3
EB
16
27
0A
F9
C5
F1
D9
FF
EE
FF
F5
D7
32
0E
15
0A
F3
08
E3
35
20
1D
42
F9
1C
F3
E9
0A
24
0F
CF
20
C0
E4
EE
03
EB
3B
E1
06
29
F1
46
2C
FC
20
37
B2
ED
3D
E8
1A
17
DA
2C
F5
0F
42
20
00
CE
E7
0B
28
E9
E8
37
E5
45
11
3E
EB
24
EB
FB
23
D7
17
FB
F0
07
DF
14
06
14
18
0E
29
E8
F3
2D
EF
DB
E3
C7
ED
FC
3C
17
07
1E
EE
14
3D
0E
23
43
0F
AE
40
18
FE
08
09
C1
12
EA
FE
CC
0A
CD
F1
20
0E
04
0B
21
1E
F6
F7
18
F4
31
09
28
FA
D0
0D
05
F3
ED
2E
08
0C
2F
4D
0B
DC
F5
F1
28
FF
ED
FB
F2
EB
13
EE
14
F1
F8
EB
07
F6
1E
23
EF
2B
10
F0
03
E3
ED
DE
FE
14
FF
E4
0E
F0
E0
DA
02
1B
1E
EF
DF
EA
CE
D8
FF
18
D5
E8
13
04
D1
31
28
11
0A
1A
D9
0D
DC
16
02
12
18
C5
FF
44
FE
13
EE
F1
24
CD
2D
2E
F4
E3
F9
E5
3B
14
14
FC
2B
EF
C1
04
06
09
51
00
0B
13
DD
BE
D5
0F
09
B0
E0
E9
D1
27
DB
EE
C7
EB
1B
21
EB
D8
EB
E6
DF
E5
13
1E
0A
D7
DB
09
0B
EB
00
02
F7
F2
1C
07
09
0A
FB
12
C3
E1
00
20
E0
E5
F5
2D
A1
1F
00
25
F0
ED
EB
12
E6
07
20
DA
9C
0F
DB
05
0E
E0
96
15
EE
C6
F3
40
C1
A4
07
C7
F5
F5
27
15
F4
BD
B2
AD
F4
B8
10
87
1E
D9
DF
FE
ED
C5
0C
FC
06
FD
EF
08
D6
E9
EC
F6
17
13
AE
EB
03
01
D1
E7
FE
1E
F7
25
DA
ED
13
E6
DB
0C
EA
D4
FE
EF
D5
DD
CD
0A
FD
D5
DA
E8
DD
EB
F2
D2
EB
F4
06
05
0A
0F
E7
EE
12
DD
FA
E1
F8
D2
D7
2A
DF
01
0B
D9
12
DA
EA
D5
16
12
1F
EE
FA
1F
EE
1B
1C
EA
CA
17
E9
D6
02
F6
F3
DF
FF
F1
DE
E4
FC
DE
11
CD
FE
F7
F5
E2
F6
FB
09
EF
07
05
C7
D9
F5
F8
D4
26
F8
09
F3
16
0C
F1
F0
F5
14
0E
E3
1E
D6
D6
EA
0B
05
EA
24
00
0F
02
F6
F8
DE
0C
DC
0D
E4
E5
E8
FA
F6
F0
13
1C
01
3F
EC
4B
E4
04
3F
13
2D
F4
1D
1F
36
42
F4
0B
15
1E
04
00
11
01
0D
CC
20
EF
0C
24
19
DA
36
E2
54
F5
25
13
F8
C2
19
D6
03
1B
DA
2D
EA
D8
29
1C
2A
07
10
1F
31
F2
2E
37
EC
EB
EB
D1
EA
0D
07
26
F8
13
10
08
E0
18
F7
04
1B
1F
F8
BC
23
FB
25
2C
A0
00
F0
BD
CE
E1
24
B2
27
22
2E
F7
06
ED
17
FA
24
21
E8
2D
1C
12
F0
E5
1B
19
EE
06
F7
16
F6
E4
EB
D8
1A
16
E6
DE
EF
0F
18
EE
18
20
12
07
E7
FE
38
0F
EF
01
05
F8
36
F1
22
26
F2
F8
0A
1E
0E
3B
16
28
07
22
1E
F8
DB
2B
D3
05
EA
F1
10
F6
24
F7
FB
00
D7
08
22
DF
02
FC
1A
08
17
39
F7
DE
00
DF
27
BE
FC
EF
DD
07
D3
EC
1B
D3
0E
1E
E5
E3
EC
F2
EE
13
EA
25
1B
1E
D4
1A
FA
D5
01
F1
C6
26
F7
3A
07
13
D9
DE
12
16
E2
F1
C9
07
FB
DA
24
E0
29
EC
E0
2E
14
23
EE
26
12
16
0C
F2
0C
02
21
E0
E9
FF
D8
DF
EC
0B
01
C7
12
24
33
14
19
F7
F1
02
43
F0
F3
0C
D3
F5
02
3A
00
30
E3
19
E3
F3
14
05
14
2D
EF
FA
2C
E2
F8
1A
F9
F0
14
E0
16
DA
16
B7
F7
2E
ED
ED
0A
3B
EC
34
32
EB
1D
1C
02
FB
D9
32
33
36
E4
E3
FC
E1
35
DF
F9
08
00
EC
29
CC
26
02
E7
09
33
C6
1E
0A
1F
0C
F2
4D
E3
F9
16
CD
32
31
0E
0A
01
24
17
F4
14
15
0E
E4
16
09
11
03
0E
B8
E0
DA
CB
F8
2B
42
CA
1C
1F
27
0B
46
1F
E7
08
0E
FB
F5
35
00
E5
FC
12
E6
F0
E6
F2
44
F8
ED
1B
32
11
CF
D7
0B
3D
A7
0C
18
D7
ED
0A
35
FF
EF
0E
FD
23
08
38
31
EF
EB
10
E1
F2
1C
18
02
EB
D4
FB
EF
25
11
38
2A
1F
F1
EF
73
2C
49
FC
E8
D0
17
10
CD
2D
1F
0D
2B
E0
CF
D7
C0
C5
09
17
F7
1D
49
E4
36
ED
02
F0
B7
FC
06
F4
F0
00
DE
24
CC
27
EF
23
D0
2B
1F
22
07
1B
DE
E8
FD
03
CB
EC
07
26
14
48
19
E3
E6
3C
34
E9
C9
03
00
F0
DF
C3
09
F0
33
FF
FC
ED
24
19
DA
1A
19
1A
0A
C4
E9
0F
11
0C
E1
D4
EA
20
D7
F8
CF
2D
01
08
39
F0
1B
13
17
F2
23
07
0E
DA
DC
25
D2
F3
CC
3C
F8
E3
37
19
F8
1F
F7
09
F0
F9
E7
0C
FD
23
F4
1A
28
23
12
F4
03
0E
02
0C
FA
27
D0
DD
FB
13
D3
1E
21
EC
CD
1F
08
FB
07
F6
ED
01
25
32
DD
26
2B
D4
E2
0F
03
1D
11
EA
E2
08
02
EE
0D
3F
DD
FA
FF
08
DD
EF
F5
1D
FC
20
61
DE
C6
DD
15
31
E8
F0
03
EF
39
29
F9
14
DB
0E
F9
12
F8
31
02
2F
1B
F0
02
01
ED
21
35
15
0C
E7
EB
1C
13
0F
21
18
F2
1B
FE
EE
F5
DB
2F
FF
FF
05
01
12
0E
22
36
0D
EE
1B
F0
DC
0E
E2
14
0B
FD
1B
E1
EB
FE
2D
1A
05
D3
E9
D3
07
20
07
05
BB
EE
DA
D2
30
0E
3D
E5
E7
F0
2C
C0
F2
C9
12
21
FB
08
0C
28
EC
F4
09
EE
02
F8
BC
18
24
19
B2
1D
D9
03
F7
3E
B4
F0
EF
0E
FB
3E
FA
16
FA
2D
EE
F8
DD
CC
29
2F
20
D8
17
D9
F8
E5
F2
F0
DC
F1
EF
06
30
3C
3C
3D
1E
05
DC
DF
C5
17
1D
FC
FA
26
EF
33
98
3C
D5
D3
11
28
F0
18
33
09
DD
22
22
A7
E4
02
2A
D0
0B
DA
01
5B
FD
FB
02
0F
0C
16
C4
D4
21
DC
05
17
2C
5D
D1
22
1A
26
15
16
09
2B
E7
E4
00
F3
0C
08
0B
41
05
14
E4
0B
D2
F9
CA
23
13
DF
0E
0B
1B
FF
E3
F4
CA
00
D8
08
2A
28
E5
DF
DE
0D
E1
FF
19
D3
CE
EE
0B
2A
F3
DA
27
F6
06
C6
E4
ED
D1
04
DE
13
17
11
1D
D1
F3
E2
20
1A
0E
E3
E7
19
02
04
26
E5
FC
FE
17
15
DD
FE
00
0E
10
36
E3
D1
0D
1E
F0
0D
17
ED
01
15
02
17
EC
04
F6
0D
AE
FC
3E
22
06
F7
F3
14
F7
E5
FD
05
C1
0F
DB
2F
E8
13
22
1F
2A
22
E8
05
08
1C
E6
39
05
43
11
1F
E2
22
21
E4
2C
1E
1E
E8
CA
1A
FE
ED
18
DC
17
13
09
FA
34
DE
C7
37
3F
FA
02
E5
14
ED
F5
DE
03
E9
23
00
D5
EF
14
00
24
F1
FB
21
ED
22
EB
DE
FB
17
13
F7
02
F9
03
D7
DB
DD
F4
01
02
DB
CE
FD
F7
11
1C
D9
09
EA
F2
05
15
EF
E9
DD
ED
EF
ED
E0
0F
EE
EC
06
EC
D8
E3
12
09
D6
ED
D2
0B
15
F4
EC
F7
13
00
FE
0D
F9
DF
F5
0D
10
13
E5
FA
D2
01
FF
07
E4
E8
E7
07
D3
01
F6
F9
FC
E1
00
E3
F6
F3
0E
D9
CD
D9
E3
DE
01
DF
F4
F9
F7
E8
EB
F7
D8
E2
1C
09
F9
F9
1B
DD
DA
FF
FD
D2
DE
07
E9
E6
06
DC
E2
F9
F4
DE
EE
06
22
E8
F3
D0
F8
1B
03
0F
EB
E6
09
E9
FD
EB
F1
FC
EC
ED
EE
1A
F4
EE
02
00
00
E7
D7
DC
E8
F8
1A
FD
F8
06
16
FE
ED
D5
E8
15
E1
F1
E9
DC
E0
0A
EF
0D
F9
07
E1
F3
21
06
F9
EC
E3
CE
E2
04
DD
D4
D4
F2
E8
13
02
DE
1B
F4
D4
1B
E0
DF
E7
FC
0E
DA
EA
E4
07
13
FF
05
EE
DE
ED
11
0E
11
17
DB
08
04
EF
F7
09
FA
DB
DC
05
11
18
CE
0B
01
CD
EA
2C
24
BE
D9
FB
C9
10
15
02
FB
FD
2F
F4
DC
BD
04
E6
0E
DD
1A
47
12
0B
C7
23
EE
0B
F6
2C
1A
E6
E4
F3
09
EC
1D
44
F1
FB
0C
14
21
F5
E5
F7
35
EC
02
00
0C
26
F9
0F
10
B2
2F
17
26
D4
19
BF
07
E4
0A
2C
FE
0A
21
F8
23
CA
E4
02
E9
34
E6
16
D1
EF
DD
95
F1
E5
2C
F4
FA
25
E0
E0
E6
FC
1E
C6
C6
2D
17
2F
13
08
F0
20
E7
3E
F6
E8
2E
35
B0
0A
E3
00
EB
F6
F7
E7
E1
EE
D3
27
2C
11
F6
D5
E6
13
B5
05
0C
E2
0A
39
08
11
1A
1E
E9
FB
F8
0C
FF
E5
32
06
21
6C
0D
EC
FF
12
F5
1C
22
ED
14
D5
00
2A
B9
24
19
23
F4
07
16
1B
18
46
1A
17
E9
CC
D3
F9
31
B8
ED
06
2A
F8
D8
DA
0C
05
0F
2C
DA
1C
EF
25
EB
31
E3
E6
C6
1E
15
16
EF
0C
ED
DA
29
D0
12
3D
23
20
18
DF
06
FC
1A
E2
23
F2
E1
0F
F8
03
FE
24
F3
62
28
EC
E8
27
E0
2C
20
22
12
DD
00
07
FF
D8
E9
CD
E2
2B
F6
CF
F4
F5
17
E2
12
E7
E8
07
21
12
ED
E8
DA
FA
12
D7
39
11
14
E7
FE
4F
F9
C2
2F
2A
1E
0A
10
04
1D
EE
F3
33
08
FC
FB
33
F1
BA
06
38
F3
30
FD
34
1F
F0
03
E2
06
C7
F3
1D
C6
EB
F4
11
E7
07
02
EE
08
15
E0
0A
FC
CC
D5
0C
C7
F4
31
35
D8
FC
E9
CC
E6
F1
36
11
1D
16
1A
E6
F0
EE
2C
09
12
11
C5
03
DD
20
D1
09
19
3F
16
09
FD
32
FE
2B
E3
F7
21
FE
D8
10
F8
20
23
24
1D
EE
02
28
06
18
06
12
EA
EB
09
EB
18
EC
13
40
FD
EF
07
40
0B
07
00
24
FC
ED
12
2A
06
17
E4
17
E1
F8
F6
0D
08
DA
09
F6
E0
BF
E4
1F
17
1F
C0
0C
14
E0
06
28
D8
05
14
34
07
0E
E5
25
22
0E
E3
0B
DC
18
2C
F3
1E
13
FF
17
29
55
0A
D4
FF
10
48
02
30
1B
F1
FB
FA
15
FC
EB
23
2B
2A
EA
F7
DD
13
0D
F7
F7
E6
03
17
13
05
F7
02
0F
F9
CA
2B
E5
FE
12
0C
1F
DA
06
0D
26
C6
22
09
B0
FA
0E
1E
03
1F
06
06
E0
E8
DB
21
01
0A
3F
0F
EF
20
27
DF
2F
00
E8
19
EF
F2
17
FC
1D
DF
39
10
22
1D
21
1E
E1
3A
D2
33
17
52
09
DF
D8
0D
F2
FC
23
CE
0E
FD
D1
F6
DA
16
1E
0E
F3
1A
F6
21
1E
34
01
01
E1
C9
0A
09
06
25
D6
01
FC
CF
02
3A
DB
0E
2A
EA
31
C6
2C
15
14
E0
04
21
36
08
EC
1F
E5
18
D5
34
E3
3F
DF
E9
E7
32
20
1B
FA
07
39
10
4A
09
04
F3
12
1F
15
31
E6
CA
B2
1A
3B
3B
07
4A
35
FF
F7
11
26
DA
F7
F6
F7
36
0A
00
10
20
18
C6
0C
D4
F8
2D
CA
FE
B7
2F
EE
15
E3
F2
0F
E4
AF
FF
DB
EE
F1
16
E4
E5
D3
EC
2F
1D
13
E6
0B
05
1A
D0
06
D3
FA
FF
F4
2C
F5
04
F9
2A
06
2C
0E
E7
21
08
3D
17
C1
44
08
35
E3
1C
E3
E3
0B
F9
EC
FB
E6
10
D8
03
DC
DF
33
EB
0B
36
33
15
E3
D8
29
F4
F3
1E
0D
29
06
03
19
5A
1A
F0
C7
17
FB
DA
1A
02
FD
DE
DA
FD
E5
2D
E7
C6
E8
28
04
1B
0B
E0
18
D1
E4
FA
F3
06
F6
09
CB
06
10
EA
D6
11
C1
F3
D8
C3
F3
05
CE
F8
E9
EE
F8
FD
FC
E2
1C
FB
0A
FF
08
0B
D4
E5
E3
24
F7
F3
D9
25
EC
F9
DF
FD
01
19
29
18
06
15
D9
FE
ED
03
D7
FB
08
19
00
DB
2C
D9
03
E6
0D
E3
CE
C9
E8
CE
E1
D3
F6
05
1B
EE
E3
EE
D9
E4
21
F0
0C
F5
22
D8
EA
D7
EC
E4
E4
D4
F8
FE
16
D3
0C
D9
11
F8
D1
DB
14
F6
22
C9
28
26
2F
18
03
4C
1E
1E
D0
06
DC
22
0E
ED
DB
F7
15
E8
0A
E3
02
05
C5
FD
44
01
F1
10
27
16
CF
E4
FF
0B
EE
DE
CF
28
12
D6
1F
22
D1
D9
31
02
27
14
23
EA
0A
F7
1C
EC
2A
36
F2
FD
E7
F7
27
E0
49
0F
FD
E4
ED
0D
14
30
F1
33
25
D8
F0
ED
C4
03
39
34
1F
FB
09
1A
1F
31
09
FE
11
30
26
09
B3
06
29
E9
E6
1C
E8
24
D5
F8
F5
1C
13
DB
E5
1B
EC
D5
1B
19
D9
0E
F6
46
F3
16
0A
FE
0C
02
DD
03
FF
0A
0A
18
35
19
26
12
1B
19
08
1E
15
02
1A
F3
43
29
06
07
0C
E0
B6
15
FA
F9
24
27
F2
F5
1F
01
21
10
EF
39
D6
0D
E1
DC
2C
0C
F2
E9
DA
E0
FF
AE
43
F2
EA
10
33
F8
33
17
E6
AF
0C
FA
1D
E4
25
41
13
35
12
4D
EF
0A
05
4A
DC
1E
E0
03
17
EC
DE
25
F7
26
E5
E0
CB
29
01
12
4E
E0
2A
10
23
30
FF
1D
31
EB
F8
F0
C1
FE
DA
D9
05
F8
11
EE
C7
D9
15
02
F1
FD
0A
F3
19
D7
E0
2F
DC
10
09
EA
F0
1E
F9
1E
ED
08
F2
FD
F1
25
1B
F2
0C
EC
18
E4
F0
0D
19
02
BD
12
C8
27
1C
E7
0B
E7
1D
10
FC
D4
ED
27
70
2A
E4
F1
E9
F7
21
04
06
0B
D8
35
F1
DF
0D
EA
E3
DF
34
3D
0D
18
E2
2F
08
E0
E0
08
19
E4
0F
16
ED
03
2A
18
24
F4
B9
C3
F6
06
0C
1D
EF
F2
3D
0E
DD
F7
E5
13
05
05
1F
D1
02
10
FF
28
05
DF
2D
2F
E1
08
E8
ED
0A
D8
E7
2E
18
DB
E8
1E
12
D0
F9
29
F5
E7
D2
0C
F3
F3
09
E9
ED
17
20
F8
FA
E9
C2
16
09
0A
1C
E3
D6
2E
F1
0D
E0
F5
1A
E4
18
EC
E8
1E
FA
04
ED
0A
49
F1
12
DB
0D
1C
F0
0D
17
F0
D4
01
18
0C
F0
17
E5
16
DC
DC
FE
E3
35
15
01
F5
E3
D6
2C
05
D0
14
07
02
1D
F7
0E
D9
D9
F7
15
22
FB
05
CB
19
E2
31
26
F0
0D
F4
00
EB
C0
1D
16
10
1A
E6
0D
04
D6
E3
0E
F5
2F
E4
FB
E8
CF
EA
FC
10
F2
27
26
FE
03
04
F5
38
17
E9
0F
17
0C
EE
E6
36
F4
06
05
02
04
DA
E7
D1
FA
04
0F
E3
0D
1F
DC
22
CF
37
EE
FF
F7
0F
14
FF
DD
EA
F2
0A
0B
07
E5
1C
14
21
3F
28
D3
1C
E1
36
D7
E9
E2
37
03
1E
27
E9
2D
03
F9
02
2B
04
23
13
EE
3E
09
E7
ED
D6
F2
D6
EC
28
F7
0B
3F
15
07
E6
FB
E4
19
DA
20
F0
C1
25
FD
11
FD
06
42
18
E3
09
1B
17
32
25
FE
2A
FF
F8
CD
12
DF
F7
0C
2D
EE
E8
ED
24
0E
27
FC
0F
EC
2D
F3
EE
F3
D3
32
F4
EE
EF
F6
F3
22
EF
DC
07
11
2C
2A
2B
1E
09
1D
21
E2
03
10
20
0D
F8
12
FD
E1
F7
EF
F4
E2
FA
26
F9
E4
17
1E
08
00
E1
38
13
ED
09
15
FC
E8
0C
0E
AD
ED
19
1C
21
13
10
FC
00
FE
F8
F7
08
EB
DA
F5
EC
F4
E4
1D
1C
42
18
D3
2E
E9
20
F4
1C
3D
F1
D9
15
D2
0F
F5
DA
36
D9
FF
E4
0F
24
ED
F2
21
D3
D1
1A
D9
0C
FF
09
22
D4
2D
25
16
3F
F7
E7
DF
0F
11
D3
F8
21
F9
26
CC
04
3F
D1
FE
05
E3
05
EF
DA
D5
CD
07
E6
08
0B
1D
24
0A
02
08
2B
FE
18
DD
EE
16
1E
14
13
0F
E5
E7
F9
49
15
0D
07
EF
12
0F
FC
3A
F8
EA
12
26
DC
DC
13
FF
EC
F2
FD
2C
1E
28
0D
CE
F5
CC
0C
22
20
EC
FD
EE
E7
FD
FA
21
19
0B
EA
03
21
E0
E7
28
11
2F
24
EB
F1
1A
14
1F
FF
0E
13
2D
21
08
36
22
10
EA
10
36
10
EC
13
BF
05
0E
22
D8
3D
E1
11
3D
09
DB
F2
11
07
2F
42
DE
F7
13
12
46
E9
04
03
34
11
F0
21
14
ED
E2
2D
F6
13
EA
F9
FC
23
4D
D7
30
DC
3A
01
D6
EA
F3
20
FD
ED
F7
0E
DB
F9
FD
EC
FB
17
F9
D2
F3
E1
ED
12
F9
FA
0A
FB
03
C4
22
DC
FC
07
02
E1
E7
CE
F6
E4
13
06
12
04
FF
F8
17
13
17
F9
FA
41
FE
FC
00
FB
04
F3
0C
E5
F4
22
FC
FD
F8
01
DC
03
4B
B9
E7
01
22
1C
D2
0A
38
F1
EB
F1
13
37
E6
E6
00
3D
06
10
FD
F1
0E
8C
E8
20
11
D4
D6
FC
E2
09
08
01
F3
C5
FA
F5
C7
07
FC
08
E0
D8
19
27
16
1D
24
30
41
E9
F4
CB
4C
EA
23
E2
2D
B9
F7
5A
06
E2
20
DE
33
B3
F9
00
F2
17
23
14
0F
C6
F8
F7
11
B3
13
CC
BC
F1
D4
09
28
05
D9
2B
CD
FF
06
DD
3C
DE
A9
26
FC
2D
FE
F9
50
DA
11
E5
25
04
0F
DE
1C
17
BA
F0
37
FD
01
FD
24
F0
F2
E2
F7
C1
E8
CB
08
26
FD
2E
EE
EA
22
31
1C
09
E5
0D
14
10
0B
2D
02
2F
1C
EE
0D
08
FC
0A
D7
E3
04
13
FE
02
FD
0E
23
E3
18
D3
F1
D3
EB
01
F0
E6
05
CE
D3
04
DB
1C
C0
19
FF
02
CF
F3
D9
07
E4
E1
3B
20
1B
15
03
FD
1F
23
30
16
BB
1F
E7
EE
D5
33
E0
19
1E
02
3B
FC
FC
DF
C2
3D
F9
DB
10
FE
08
24
12
21
13
03
28
31
DB
2B
3F
28
D2
F8
03
11
CF
0A
28
07
FE
0A
1B
0B
06
2B
FC
F5
ED
F9
FB
01
F5
ED
27
05
E4
19
E8
E9
18
0C
0E
21
F2
02
16
19
E3
53
19
F0
1A
1C
0D
17
EB
1C
36
0E
E2
B5
B7
F1
11
F5
E4
17
25
27
07
29
0F
0F
ED
00
C8
2C
E4
F1
E8
0D
01
F4
DE
D9
E1
FB
E2
ED
2A
DB
27
1A
FC
02
F8
22
3D
DE
D6
1D
26
F7
EF
DC
08
DB
F7
0D
E2
F0
FC
4D
F2
D6
01
10
E7
2E
E7
E7
FC
E6
23
31
23
E8
03
DD
0C
3E
CA
3D
34
20
EA
1E
24
E0
E1
15
0D
D3
10
D8
20
26
EE
13
C7
38
13
22
EA
DE
E5
DA
06
FA
F9
04
4F
0C
2D
46
FE
D3
AC
CC
02
22
02
DB
DD
F3
05
24
F9
08
25
FF
16
E7
17
E9
02
23
FE
02
1E
0E
F7
F4
2C
36
49
FC
27
C5
29
12
17
26
22
D0
37
29
EE
E1
01
EF
07
F4
DA
F4
CD
0F
D4
10
2A
B8
00
DF
30
D9
36
DB
E7
F3
19
DE
27
B6
E3
0E
0D
E4
27
DD
34
0F
F8
38
24
FA
FB
01
3F
ED
04
C8
23
20
0F
2C
E3
08
E6
1E
26
11
15
17
E2
17
12
F0
F4
D3
37
E6
21
0F
F5
20
F6
1D
11
D2
ED
06
AF
03
CF
BF
0E
39
04
9A
02
F0
17
23
FA
F8
C9
F9
E4
0F
10
0B
1B
25
07
29
F1
F0
08
1E
ED
F2
0C
E6
23
11
1B
FD
0E
2E
0B
21
DA
CD
EC
1A
2A
E2
00
E7
1A
F5
CE
10
2B
DC
26
13
CB
1F
F1
E8
19
29
30
00
0E
00
F0
25
E5
F2
D3
22
50
0E
14
27
FF
1C
2D
E1
DD
D7
E3
F4
41
20
D6
F2
E9
C0
DC
3C
C5
E3
2F
BB
F8
F8
34
DB
EF
02
D7
D8
0F
25
0E
15
11
DB
E2
F3
DF
34
F9
08
07
32
28
10
14
26
2D
19
D3
1A
0E
EE
E8
0F
D0
02
F9
E3
DE
E2
07
EC
08
DD
E5
14
F3
D3
E3
FF
11
CE
DF
EC
E6
0F
E4
F4
24
FC
04
D3
F8
00
C5
C1
F0
06
BD
EE
16
09
2C
E9
CE
FD
FD
12
ED
1A
E5
FD
F1
E4
DF
11
C4
02
FD
1F
09
BE
FF
FE
18
FE
E3
24
DA
FD
0E
06
0F
EE
EB
DB
F3
C5
F5
1C
0E
FA
0E
15
03
E3
FD
E5
F4
C4
E8
E6
E8
F1
18
ED
FE
06
18
07
19
E8
05
BB
F4
DA
29
E1
FD
18
F0
E2
0C
DA
0B
D1
CD
D9
CC
D9
B5
ED
0F
16
2A
19
F3
2C
F0
15
EC
12
01
FC
16
EB
10
03
14
3B
11
18
35
19
19
0C
1C
F0
15
EC
23
EA
F0
F2
3C
E4
1A
DD
40
E1
EE
1A
26
F6
EB
B7
E1
02
B1
03
2E
05
EE
D3
D1
E6
22
CE
07
D7
18
26
39
06
01
D2
F5
0B
12
18
22
E2
F5
35
DB
42
2A
3B
00
34
2A
19
E3
CC
FE
59
1F
2A
FE
18
20
F6
03
E3
E4
E4
FC
06
E9
D5
00
11
D8
2A
2C
27
1A
1C
10
F1
1C
DD
EA
27
09
10
EF
12
E4
F3
FD
2B
09
E6
F8
FA
07
F4
E0
E7
EB
EF
EA
E4
1A
ED
06
F7
C7
05
03
1A
19
05
F5
FD
2B
0B
F4
EC
04
10
0A
E4
11
1C
F5
13
F2
F9
10
13
25
0A
CE
44
C6
FA
F6
1B
3F
12
CD
CA
FB
1D
20
D7
16
16
00
12
10
08
FB
3F
F4
1E
1B
01
E1
21
F2
22
CC
CF
F3
01
02
2F
CE
1F
01
D0
02
47
D5
29
16
DA
23
DA
1B
14
F5
EF
0C
ED
44
F6
F0
25
E6
39
05
FD
36
06
01
20
DA
21
DE
23
E1
15
12
0D
28
F4
E3
F0
E3
FF
E6
D6
26
2F
0E
FE
CF
06
DA
D1
CE
FE
F0
1C
E8
18
FE
DC
EC
0F
05
E2
0F
0C
B0
23
E5
3B
D2
16
FB
09
DE
13
F6
31
13
E9
13
F6
27
15
F3
0D
02
1B
02
F6
26
23
14
FC
D3
2D
E1
12
D9
31
C5
2B
0B
2B
38
1E
FB
02
CB
F9
DA
30
FC
29
E3
15
22
0F
F2
C7
0A
32
0D
F6
1D
0F
E4
20
47
FF
26
EB
07
E9
38
0C
D7
39
CC
1A
C6
EB
1F
F8
EB
F0
E9
1C
D3
D3
F9
0C
05
BC
24
03
22
CE
03
0A
13
0B
11
06
12
D8
14
F2
E7
3B
08
17
11
FD
E4
20
29
27
0D
36
3E
F1
1F
20
1F
05
C3
E6
24
27
D5
14
FC
17
C0
11
04
F8
EC
26
F5
1A
E1
FE
18
13
18
FA
E8
07
25
28
1C
F8
E9
1C
F0
0A
22
FA
15
D0
DA
0F
41
0D
4B
EA
0A
17
08
F7
FB
0D
EA
FD
02
F8
B0
1C
D2
D9
2F
17
0B
F6
FF
15
08
19
CE
E2
C6
1B
F6
08
F3
27
02
1A
E7
2F
08
2B
E9
0D
E4
E5
E1
26
18
E7
1C
2B
FA
00
FE
DC
29
E6
21
0D
DA
F4
F3
E3
10
0A
DF
0D
FF
EB
19
18
EC
DC
E5
0C
08
02
DC
12
0E
20
07
15
07
EE
1E
F1
F3
FA
FE
14
F9
EB
E0
DD
DC
F5
D9
EA
DD
EF
E2
EC
D6
FD
0D
0E
1D
EC
09
16
13
26
F4
EF
ED
E9
E2
E2
D5
03
E2
FA
06
E4
07
12
16
09
1A
E8
E7
04
06
E8
D2
F3
FF
F2
D5
E5
E5
E4
E6
1C
0A
DE
15
10
10
E3
D9
12
CB
06
E3
0D
E2
E7
E8
EB
D7
F2
FE
F6
19
D2
22
0E
F6
02
03
D9
F8
F4
DE
A7
0E
01
21
E2
20
DC
CE
E1
12
19
F6
27
E9
D8
E7
0F
BF
38
16
1C
29
D9
0E
D8
20
DD
F9
EC
FE
31
03
F2
E2
E9
D1
FE
2E
0D
F4
F2
24
EE
CF
F9
FD
E1
EB
1E
E8
F0
1B
15
38
E7
FE
CA
F6
23
13
F4
FD
F5
BE
3B
52
E5
F2
DC
F5
E9
03
06
D9
02
F5
20
2C
20
0C
FA
01
CB
FC
42
08
01
20
CC
F8
CC
FF
14
D5
E0
EC
F0
37
0D
CB
02
FA
29
F3
3F
01
3C
E9
F5
13
35
F1
0D
EA
08
F6
00
03
01
1B
63
EE
FD
E5
F2
21
1D
23
10
EB
0A
F3
C9
DF
F5
33
0C
0B
F7
F2
2E
CA
16
F8
0B
EC
EF
09
32
F1
18
FE
22
06
0A
03
48
E9
20
E1
15
EF
E9
2A
2F
E6
2A
FB
EE
04
F4
D6
23
F7
DC
D2
1D
11
1C
19
10
FA
11
00
1C
FE
AF
FE
FE
EE
F3
0B
FB
5D
E9
F6
F8
D6
D5
E8
EE
2F
14
D9
D1
37
12
BF
F7
F6
03
C6
F5
21
04
1F
0F
E4
19
1B
19
23
02
01
29
28
C2
E5
F0
12
EC
E8
1A
32
F5
07
26
16
E0
E6
E5
EA
31
08
B9
F4
E5
FC
04
0D
2D
17
E1
D7
04
E6
21
D0
08
F3
E5
16
12
FE
17
E6
F6
C5
24
0D
2F
E3
0C
00
CE
FE
B3
F4
26
EE
D7
DE
06
48
B6
1C
E0
25
32
2D
12
27
ED
F7
F2
02
17
C9
F9
C8
08
D6
FE
F2
32
17
F6
E9
DA
E3
1D
31
E7
CD
DC
FD
04
40
0F
FA
F2
F8
25
13
35
34
24
43
FF
EE
03
54
19
1D
1A
1F
21
E1
17
11
1A
D3
F5
1E
F2
CA
1C
FB
0F
28
FB
11
14
20
2B
13
E6
1D
E4
E0
35
1F
F6
DE
0E
05
19
18
04
CA
EC
ED
F3
24
0F
03
EF
11
0C
E1
EA
04
E4
F9
1D
12
FA
21
35
E6
D0
F0
FF
4A
30
53
E8
34
12
04
F8
19
03
46
3E
E7
21
DE
19
C7
F3
13
EB
CA
06
2D
09
FC
35
05
16
FB
00
10
F1
E8
DA
28
12
02
D6
FE
2D
16
F4
2C
08
9E
00
F5
DE
D6
C2
1C
00
D4
1E
EE
14
30
E2
36
1F
F4
02
D5
15
D4
0C
21
BB
FC
EA
E1
E2
19
25
22
1C
F1
BF
14
35
DB
D4
E7
06
08
1E
32
E9
EF
F9
D7
3B
C1
EF
37
F9
E7
D2
F7
17
24
09
08
E2
11
19
1F
09
D1
EB
FC
D8
D1
36
49
19
0E
FB
0B
0E
A4
23
1D
0D
06
10
03
EE
81
F7
18
D7
4F
14
15
E0
CF
FF
22
D8
DF
0B
2F
0D
D4
00
F1
05
FD
FF
CB
E2
E6
E1
B3
11
F2
19
F9
F1
FF
F3
09
F7
D3
D4
2B
02
22
DA
F4
9C
EC
FA
E3
EB
E8
1B
A3
25
13
FD
B0
12
FD
F4
0D
C4
26
C0
30
F5
EA
12
E4
27
08
1A
DB
C3
27
C3
26
E0
CE
29
2A
21
EE
2F
C6
DB
E0
F7
21
D3
33
F2
18
F7
20
FC
A8
FA
EC
FF
ED
28
34
CF
09
12
DB
15
F0
D1
FA
EF
E2
0F
EB
07
1D
0C
C9
E0
0F
0E
D9
13
E3
26
CD
15
07
BC
FC
0B
D7
EA
13
13
03
04
07
F4
C6
BC
01
F3
39
F5
CF
04
BD
1A
10
E2
F0
E3
0B
E0
D6
F2
C2
AB
F9
F5
EF
ED
CA
E6
26
1C
04
18
0C
CC
FD
14
21
FA
DF
F1
FF
37
E7
28
3E
30
F7
F8
FC
D1
FA
1A
E8
1E
0C
F6
02
41
0E
06
22
FC
E7
2F
EE
02
F5
02
00
0E
19
1B
20
0C
EB
CD
F3
08
08
EA
EE
E4
09
FF
EF
29
ED
EB
D8
FD
E9
F5
2C
E3
E2
E7
F6
1F
08
F6
08
04
0D
0F
EA
0C
F9
04
13
FF
13
F8
F6
F3
20
0E
E8
02
FC
39
3B
FE
FC
DB
1B
10
0C
03
1A
F4
F2
14
1E
E3
0C
1F
06
EE
10
0B
D7
D6
0B
F1
DC
3C
2D
09
17
F4
E7
32
FA
2F
EB
FE
0B
12
0C
18
0C
21
E7
1F
2A
2E
E6
C7
EF
B7
06
E7
DA
07
E5
E7
E6
1B
E2
FF
1C
1E
1E
39
F6
00
F2
10
EF
DA
22
ED
00
DD
19
DA
0F
FB
E8
DC
CE
C9
FC
1C
ED
1A
E1
33
28
13
41
F5
0C
2B
49
20
CA
1A
29
EA
06
E1
E8
07
32
F2
1C
08
E5
F4
FD
13
06
ED
17
2A
DC
E9
FD
02
EE
E6
DD
14
F3
29
2A
E9
18
B4
B5
0B
36
D6
13
13
43
30
F3
20
CC
01
32
F5
E6
05
08
E9
2A
E8
20
02
F6
D5
EB
F7
0D
1E
30
16
23
E8
2C
08
0B
0A
25
E0
28
DF
10
F3
D3
13
0E
FD
FD
2C
E6
01
01
D5
D5
EA
E2
F2
0C
0F
02
FD
F9
0F
14
3B
F6
33
26
DA
07
FD
1E
1C
FF
31
10
CF
F3
F4
2A
0E
1F
CE
1C
08
F7
EA
F9
1B
2F
F4
0D
E6
FB
26
D4
1A
C7
4E
01
06
C2
F8
C9
F5
0C
F6
F8
24
FF
FE
F3
FB
EB
EE
01
EE
02
EE
06
D4
37
0A
EC
EF
F6
F9
FB
F6
08
15
F7
01
E7
05
F9
DF
23
20
1B
03
05
0F
F4
ED
12
F4
ED
13
F8
FE
2D
0B
0E
08
08
29
D0
EE
16
E4
0A
FE
F6
FA
19
F2
F4
2C
01
DE
EC
E4
2B
F2
EC
13
07
C6
D0
04
CA
10
07
DE
20
F8
2F
E3
07
DE
18
D4
0D
F2
AF
E0
0D
FF
EB
D4
22
CA
13
E3
E5
F2
E8
BD
E6
ED
2E
02
E3
DC
EA
F0
19
F4
F0
F4
14
03
10
F0
F6
21
2A
E5
E4
E8
CB
CD
D8
01
CD
15
1C
CC
05
EA
DD
12
FC
E1
34
0A
E0
06
1B
18
27
0A
02
0C
20
02
D6
3C
FC
D8
15
04
03
E9
2C
FD
ED
00
BC
D4
E8
CD
01
E8
D6
D0
03
D4
1C
0E
E9
EA
ED
EB
FF
EA
EC
EF
F5
F4
1C
EF
D3
36
FB
06
24
EB
E7
38
C2
0B
F8
0B
18
BB
F7
F7
2B
1E
07
1C
1F
DE
E5
12
F7
0C
EF
F0
D7
06
F5
BE
E5
E0
FF
21
C9
EA
FC
FE
F8
0C
1E
E3
28
1F
DA
FD
F5
F2
3B
10
D4
F8
06
0C
D5
29
1D
E3
1C
01
03
12
1D
06
AD
F2
E0
1B
F4
FE
F0
13
36
EC
E8
42
C7
EA
D8
F7
1F
40
BB
18
15
14
BB
0E
16
09
10
E1
F6
D5
2E
EC
1E
FA
0F
DF
F0
2D
FC
E7
EE
F9
09
1C
D0
12
FB
04
06
23
30
37
10
EB
DC
DE
FE
1B
1B
14
E7
1A
14
E8
F9
23
03
0A
27
0A
EB
D9
F3
E9
11
E1
11
15
07
21
18
0C
27
0C
FF
C0
F1
19
EF
FB
2A
F0
ED
16
12
FD
CB
0B
E1
02
1B
0C
E9
F1
F5
18
E8
C2
1C
15
21
F4
31
F8
1A
0A
F9
1C
1A
CB
DA
EE
DF
1E
2B
0E
EB
ED
EF
37
27
25
DB
18
40
25
F6
E4
18
02
15
05
17
25
FE
08
18
F1
F9
23
17
19
05
D6
F2
E2
1F
0C
E3
05
EC
F2
E6
F7
11
1A
1B
21
C9
18
EC
03
E4
2B
F8
29
F1
1A
18
3F
E5
08
FE
08
06
10
E8
FB
FD
F4
30
29
3B
CB
EB
DD
C8
3F
03
F0
E5
FD
B2
E9
12
03
0F
E9
E5
F9
C5
01
EE
32
DE
F4
F0
E6
05
CF
2F
E2
15
0B
06
24
19
11
32
1D
EC
59
F0
0D
31
14
23
FD
F5
EE
C9
0C
EC
F7
E4
1F
2E
EE
1C
1A
29
1F
F1
F8
06
2A
0D
4A
15
F6
F1
BE
E1
29
D6
38
AC
FE
2A
ED
02
EB
FC
0D
F0
38
0C
E1
07
F4
EA
DB
16
FC
33
03
00
FB
0B
FF
3D
03
DD
FF
22
45
FF
04
F0
22
0B
2C
00
FD
08
13
F4
D7
EF
06
18
11
00
16
F1
27
06
E4
08
FE
FE
10
CC
23
F3
E2
CE
E9
29
F1
0E
0C
E6
F2
12
1D
30
E5
18
2C
F1
ED
EE
25
1E
F0
16
1A
B4
0F
CA
EB
29
0F
1A
37
ED
F1
06
2C
09
B6
19
22
F1
D1
E8
1A
3E
0D
02
1E
CB
16
05
10
F8
14
05
EA
30
00
13
15
29
15
EA
1F
D5
DF
18
F8
E6
E8
FF
20
C7
2D
E7
EB
14
01
FE
1E
ED
CF
03
1F
1C
DA
13
37
D5
DE
FA
D7
F7
1C
D5
17
E8
EA
CA
EA
28
23
1D
08
ED
DF
0B
E5
02
C7
EE
D7
F3
F0
24
EE
07
EE
02
14
0C
30
BF
02
27
D7
F9
23
0E
29
F7
16
1B
23
08
E0
24
F7
14
EA
06
12
EF
FE
EF
FB
CD
01
07
DB
1B
D8
00
F1
E2
F7
F1
23
11
17
22
F8
D1
CC
D7
02
C5
DB
FE
F8
1E
17
F6
EC
E7
FF
20
F0
38
E9
E0
E1
D3
EB
13
00
FE
F0
D8
05
F7
10
E7
E8
F3
FD
D6
ED
E8
E9
F3
05
FF
E2
08
F6
FE
04
01
08
F5
39
02
FA
0D
E6
09
02
44
14
AD
DF
18
EF
1E
1C
D2
18
2A
FC
2C
0F
02
11
EB
DE
CF
EB
FC
22
ED
DA
1D
FE
07
1E
21
02
D1
EC
EF
07
F3
0B
11
2A
C2
1A
1D
02
D0
10
01
1B
25
03
23
D1
0E
1F
07
E0
DA
E8
21
EA
28
BD
1F
EA
1F
F6
1D
23
30
1B
0A
F5
E0
D6
E0
D8
11
2F
15
F0
35
12
D0
E6
EE
26
ED
EF
2C
21
EF
FE
BD
38
FC
F6
1E
F3
11
0D
EE
C0
1D
17
EC
E8
FE
13
16
D8
F2
E1
4A
EA
0A
03
0E
F3
00
FA
15
37
F4
E5
D0
FA
01
D1
F9
23
29
18
0A
09
DE
04
01
E9
DB
EF
2D
15
0F
2F
23
0B
07
0C
31
FD
24
F1
29
EF
F6
0C
DF
11
02
B2
DE
FB
D3
F7
02
1C
20
D4
D6
07
E4
DC
25
11
1B
24
D5
F7
1C
0C
E4
17
01
15
03
DA
19
FB
31
36
28
39
01
F4
0C
E8
E0
04
0B
0A
15
F3
DD
22
17
1C
19
20
D6
F7
0C
FC
C9
DC
DE
08
20
17
27
1F
DB
E5
D9
20
23
09
08
32
EE
F8
15
0F
F2
18
10
20
D4
00
09
CA
05
06
FA
F1
D6
13
F5
E0
E6
09
1C
33
21
04
EB
11
CE
F2
F9
ED
D5
C4
9B
F1
25
F4
12
DE
26
25
E8
EF
FB
0E
F5
F9
1F
F1
01
E9
E4
FF
EF
0E
F8
0E
07
2C
10
1E
CF
0C
02
23
1D
14
EC
0C
28
24
D4
F9
EE
05
0C
20
E4
19
23
E5
09
04
F9
DF
D1
EF
E1
3D
04
19
3C
E1
D2
F7
F8
2D
A6
EB
DF
EA
F4
20
C9
15
07
24
D8
0D
DC
0C
1C
B1
19
23
F3
03
DE
07
19
F5
05
F4
F1
FA
1C
F5
0E
F6
07
E3
0C
F6
21
04
FD
0B
F6
15
EE
FC
E1
FD
14
F9
F9
01
01
F4
15
F3
E4
09
07
0C
E7
F8
FE
0A
03
F4
EF
C9
00
E7
13
E2
06
EF
E9
FC
F8
06
D2
ED
DD
F6
08
16
03
E6
DE
E9
FC
DB
ED
FD
17
E8
17
07
0A
F1
F8
0F
F4
CE
0C
D2
13
FA
E3
E9
E6
00
0E
FF
00
FE
09
1F
0F
08
E8
D3
E0
EF
08
E8
E3
D5
14
E9
02
CF
FF
D4
F0
F1
EB
14
DC
F4
FE
16
E1
DB
FF
FE
EF
FA
0C
14
17
EC
D8
BD
EB
0B
2A
1F
FF
12
DB
17
20
05
1A
EC
24
02
EE
00
C9
28
DC
2A
E2
ED
07
F0
1F
FB
13
05
02
D4
12
F8
13
F9
F2
C6
FB
31
E4
07
24
12
2E
FA
F3
FB
0C
ED
1B
06
0A
D9
F7
EE
1C
CD
F0
C0
F7
21
DC
0C
3C
0E
C8
0E
C5
07
21
E6
F6
21
E0
EA
20
42
EE
24
EA
15
EA
F6
D7
42
16
E2
D2
02
06
EB
36
FC
E4
E4
F6
17
0A
F7
FF
D4
EA
E1
12
25
0D
26
15
FD
42
28
FD
2C
16
CF
38
32
F6
1A
D0
1F
17
E3
D8
E2
37
EA
50
E8
C9
12
F6
37
22
1F
D7
0E
08
25
FD
2C
F7
F7
23
FF
E9
FF
FF
03
FD
1E
23
08
D9
2C
2A
21
15
FA
E9
01
15
E9
09
3E
FD
08
01
E0
A7
EF
02
F4
29
F0
E8
F6
13
4B
F4
1E
FF
E8
EB
E2
24
E1
03
17
16
01
13
F0
2D
0A
1B
F9
E5
21
E6
ED
01
F2
16
D4
17
FA
03
F6
1A
EC
10
20
19
04
E4
FC
E1
31
EB
21
26
11
EC
16
13
FA
EA
18
06
F5
16
FC
03
02
D9
03
3D
2A
38
FE
F6
1A
16
E3
D1
03
EE
03
31
D9
E6
E8
22
0C
CE
C8
EC
B8
F8
D2
0D
27
EF
E9
E6
F7
0E
18
D6
29
15
1D
06
0C
16
00
C3
F0
15
E4
2D
15
00
F5
00
1F
EE
25
F5
DE
F6
E3
FA
05
07
08
F8
EC
26
CA
FD
09
F5
EF
E1
32
C3
03
15
1D
FF
CA
EE
0C
E5
04
1C
13
14
FC
38
F7
0E
FE
D8
0F
3E
19
10
0E
E1
F2
12
28
09
DA
42
F8
04
F4
F5
E8
34
10
27
36
1C
13
AD
D2
12
FF
F7
3B
F0
F2
31
FD
E6
DE
14
1E
19
2D
01
20
0D
FB
F9
2B
07
DE
1E
F3
1C
1E
22
DB
14
FD
FB
F9
14
EF
13
D7
CF
1B
13
DB
B3
16
FC
EC
E0
FE
24
28
0B
EB
F5
F3
29
E4
24
05
F1
08
23
1B
F2
D2
02
22
E8
3D
0F
E3
12
0E
05
F8
F9
E4
1F
23
F5
01
EF
FB
EB
05
1B
33
22
28
0F
26
F6
E8
05
EE
17
1A
FD
11
E7
02
EB
2E
F9
E6
E7
F9
DE
E0
C8
D2
15
E8
11
F2
1E
0D
12
E3
1A
F0
DF
E8
0D
03
C8
ED
E6
0D
C0
15
F0
08
05
E9
0E
E1
E9
3A
12
EC
C1
F6
FA
0D
07
F3
19
DA
11
0E
1B
FB
CE
E9
06
F3
12
1D
ED
40
EF
22
C1
DE
21
ED
15
DD
06
FA
00
16
2D
F9
20
C0
25
EF
E4
22
EA
EE
17
EA
C1
FF
18
0C
E5
36
08
03
1B
34
F0
02
01
1D
1D
F4
14
FF
F6
04
F0
0E
24
EB
F7
2F
09
F9
14
01
E4
0F
C7
FF
0B
0D
EF
04
E5
FC
1C
21
FD
29
EB
08
22
EE
E0
E6
29
0A
17
13
1A
ED
FF
DC
1A
05
D4
B8
FE
E9
0C
1B
06
0A
20
1F
F5
1C
02
11
07
13
EE
EF
0E
3A
21
DB
25
ED
D1
D4
08
CA
1B
F5
F4
0D
0D
00
13
EF
DE
11
21
E2
DC
C8
E0
F2
B2
16
F7
21
28
F6
28
15
25
0B
47
28
06
1E
AF
2C
14
F8
0D
32
E8
3B
F5
1A
2B
FB
D2
02
D2
51
FD
F4
14
01
EE
25
19
EE
F3
E1
23
F4
2F
DC
2B
EA
D4
B9
D2
19
16
F0
FB
DA
D8
F6
EE
BD
FF
F7
08
41
19
F7
0E
0B
F2
DC
FC
12
FE
23
DB
14
1E
10
EA
E4
01
1E
26
06
D5
C1
F9
11
2A
15
DE
F8
3D
D7
06
D2
F1
3F
0A
14
11
D9
E6
E7
E4
12
ED
F4
0C
EC
15
42
10
00
F2
01
CA
DD
1E
07
1B
E3
F8
3A
DE
1E
E6
0C
EE
0D
2C
F0
24
DF
B1
00
23
D8
18
E0
27
12
F8
47
0B
29
FC
05
EB
FC
3E
18
36
0C
DE
D8
08
FA
D7
25
2F
12
E7
21
B8
FE
01
A4
21
27
FC
0E
F5
EA
06
2C
E5
E3
E8
F3
D6
FD
F2
03
21
00
E6
D6
01
E0
E4
16
0A
00
F6
D5
12
E7
CC
00
C7
D1
EB
14
17
CE
0D
FF
0A
3E
E8
FF
E1
E6
38
09
E3
48
E3
23
F9
2E
10
1D
F2
17
17
ED
F2
F0
E2
00
DF
E8
08
3E
28
FA
CE
E1
F1
06
FF
11
12
16
DD
E7
C4
FE
40
14
36
E1
0D
00
F4
3F
3F
F4
05
0D
08
F5
1F
FE
03
06
E6
00
0D
00
F0
10
22
17
E9
F3
04
F3
FE
D4
44
1B
07
FA
3E
F2
0C
E8
DA
0A
23
FB
F5
F0
DE
F5
1B
F2
DE
FF
37
FD
DE
FD
23
07
F6
1E
02
0D
F0
17
17
1B
E1
C8
3B
28
01
28
F4
FD
ED
0A
03
10
34
0B
36
03
0A
15
EC
67
EA
E4
36
FE
18
22
18
00
F1
10
23
2A
F5
22
06
F1
CD
D2
07
01
D5
F1
FE
E7
10
1C
E4
10
04
08
D8
ED
27
EE
14
11
F4
13
E6
ED
06
DC
28
FC
F8
1F
38
E9
25
27
27
EE
D0
D8
F3
45
51
D9
D2
12
16
28
05
EE
18
1B
08
07
DD
1A
C9
ED
14
06
29
E6
EC
FE
1B
34
D7
07
D2
F5
11
05
D0
0A
FE
22
31
09
E1
F4
11
EE
EA
E6
01
1C
00
DA
DB
2B
E1
00
FC
12
38
55
3F
E8
D6
16
EE
FF
08
F4
C4
15
E2
CA
11
27
03
19
22
F5
E3
FE
90
2A
0B
DF
F4
FB
19
F9
F0
DC
21
E9
C0
33
E0
01
BB
F5
25
05
DE
EE
37
2C
ED
03
36
E6
ED
15
0E
10
0D
F3
EB
00
B3
3B
30
CD
F2
E4
3B
F4
0E
14
08
FB
27
1B
23
DA
0C
E6
F3
DC
CD
F5
08
2A
21
46
D9
CA
F7
BD
93
03
E8
0F
CD
1E
FD
0D
D9
0B
0E
13
F2
0D
16
17
E3
31
2E
B8
06
0C
FF
1D
E4
F6
40
DC
38
0E
F8
E0
06
3B
E5
F9
2A
31
20
FD
15
0A
F0
D4
27
D9
FA
0B
34
E1
E8
FD
EB
11
CD
1A
21
17
0F
13
F8
1B
0B
E4
CE
E9
F6
2D
2E
02
25
E9
D6
06
21
F1
30
E4
11
E2
CF
05
2C
1D
FB
07
AA
E9
2C
0F
1C
12
00
2C
36
1B
37
F3
18
DC
11
EA
05
E1
08
F3
00
1A
27
FD
D5
3A
1E
25
30
E5
05
D6
F3
01
E3
1E
1D
1A
FD
00
1B
05
25
29
1A
E4
F7
D8
FB
1C
1B
E7
EC
EB
EF
0B
E3
D6
E0
E7
F4
BD
01
F5
E8
F9
16
4D
F1
0A
1F
E4
D5
2B
ED
E5
31
00
DD
F0
F7
25
EF
02
F3
03
E3
E1
1C
0A
13
F1
20
EE
DF
2C
D7
D1
D7
0E
21
06
0C
F4
FB
CE
FA
17
16
18
3F
3A
E0
F2
EF
FE
50
01
DD
1E
0F
1D
EF
DE
19
F2
DA
F1
EA
05
30
2B
9C
C9
CC
F7
E6
0D
E9
EB
28
FD
0D
1F
F8
DC
E8
E9
D8
34
CF
18
24
FD
E2
13
FF
11
F7
00
19
0E
E9
1D
0E
27
1C
F5
22
37
D6
21
21
18
0E
0B
E0
22
E6
1D
30
09
27
2F
26
EB
CC
CC
DF
1B
14
2F
F5
C6
F6
00
E3
18
23
4B
F5
12
FE
16
1E
0A
1A
29
06
16
17
12
F5
F9
35
04
E2
15
2E
E4
B0
ED
15
2E
FE
16
1D
1E
10
19
F0
FD
39
D5
30
10
DB
05
EA
16
0D
0C
FB
29
DD
E1
FA
F3
10
1E
C2
0D
40
2D
E6
F6
E0
16
E1
E6
E8
F3
03
CB
FE
FB
1B
17
28
CA
FB
D1
EB
FE
E5
F4
00
0B
D7
17
00
21
CE
D2
24
1D
2E
E8
17
D6
EC
15
EF
13
10
E4
18
F0
20
D9
E7
16
10
05
D6
10
16
FF
DA
EB
2E
FD
E9
18
E1
FA
34
1D
01
CE
E4
ED
34
06
0A
EF
FF
26
09
25
0D
17
28
F1
00
F6
1C
08
00
02
34
11
12
FE
D4
06
EC
03
E9
F6
14
F4
F3
0F
CF
02
2C
18
D5
14
08
15
C5
E6
DF
B2
ED
13
FB
EA
07
00
C6
CB
03
11
19
14
22
18
24
25
E7
37
DA
ED
2D
24
EE
42
DC
01
30
03
F1
F7
0F
FE
DF
13
E8
EE
FE
06
13
E6
E5
1A
00
24
F4
D2
F5
D1
1C
FF
D5
06
14
12
11
2D
F2
FF
E4
C9
F6
36
0B
FE
17
39
E1
01
F8
0A
0C
08
03
CE
F1
FE
FC
D8
0C
C9
E5
21
EB
29
07
E9
33
DA
DB
CC
29
C6
E5
18
0C
27
03
08
F9
D0
13
E5
D8
16
DC
F2
D9
FE
DE
BD
F7
E3
15
D6
E4
19
EA
F9
FF
CF
25
E8
36
0E
35
F4
19
02
D9
F6
08
F9
FD
1B
36
41
18
19
C8
11
23
2D
EA
F8
1E
F7
36
03
22
34
12
07
03
F4
F1
2F
0F
23
E9
F7
D6
0C
EB
05
E0
DA
35
E3
10
FA
CC
D9
F1
23
D0
15
C5
E1
20
13
F2
F1
F7
0B
F6
FC
E5
EA
D6
32
08
1F
12
E3
2A
1D
05
2C
12
E8
12
E8
C9
07
F6
DE
C8
04
EC
16
CE
09
0B
19
E4
00
CC
F9
DD
29
1A
17
ED
1B
26
E4
29
11
51
14
EF
13
0D
0F
44
16
F1
4D
F2
03
11
E0
F5
E7
17
B2
F9
1E
FD
DE
DB
30
17
03
BE
DA
2D
C2
16
1E
DE
F2
EE
36
0A
B5
0B
C6
E3
35
D1
10
2C
EA
0C
07
E0
23
F3
F9
F4
FC
21
FD
13
F2
08
1B
11
E3
08
FB
0A
15
1E
F0
0E
07
26
3E
F7
12
F1
17
EB
D9
20
FA
24
DA
11
DB
E9
4E
DD
0D
E6
E0
03
14
00
EF
27
E9
F8
F2
F2
18
F1
E7
07
4E
30
FC
DF
E0
01
D2
DB
30
F1
FD
02
F5
03
45
13
0D
DF
F0
F3
0B
F8
3E
3D
EA
25
DF
FC
E1
E0
F2
D0
00
F6
4D
4C
BD
E5
26
16
25
FD
F2
13
F4
D3
E2
0F
CF
1B
D9
FB
D9
1A
DF
2D
1B
45
FC
1F
E3
29
22
00
EB
27
DE
1B
10
D6
14
1C
F0
D6
E1
DC
ED
0B
1B
ED
35
1D
E0
FF
3B
0F
E5
08
0E
F7
D9
FC
24
F6
17
0F
09
03
22
E2
21
17
CB
E1
F5
2F
33
0D
53
DC
EA
F9
BF
1D
ED
EC
3A
CB
01
F4
E8
D5
FB
05
F0
1F
FA
03
EE
E9
20
DD
E9
24
D0
E8
15
1C
21
E4
20
18
0D
DF
13
22
2E
DC
31
E7
24
E6
13
D6
EE
A9
1B
28
FA
E0
06
16
29
FE
C4
EE
03
FF
EA
F7
D0
1C
F9
36
14
CB
F6
CF
F6
E3
F6
39
E8
06
B5
0C
1F
D3
15
DF
FE
E8
E1
0B
00
B9
15
F4
FB
2B
1A
EC
46
16
D2
3F
0B
A0
25
15
2D
F4
22
FF
B8
D6
05
E9
10
06
C3
EB
1E
D4
1D
F7
D8
D4
FA
F6
F9
13
E7
EB
FA
F3
FC
05
C8
0B
E6
17
E4
0E
0F
33
1C
EF
0D
0A
13
03
ED
17
48
F0
EC
D2
DB
E5
06
07
EE
FF
E9
FE
21
DC
D2
C5
BC
E6
08
FF
F1
EC
E5
23
09
23
D9
03
E1
FF
F0
DA
DC
20
CE
E4
CF
11
F0
E8
B8
FC
29
24
EC
07
F6
05
FB
F2
D7
F7
12
0F
F3
E7
07
10
0D
B8
F7
05
E3
FD
1B
D5
06
03
EA
CC
E7
D3
C7
11
D3
E3
EF
16
08
12
B8
D4
E6
54
F3
0F
E0
0B
BF
D5
10
CC
03
3C
DE
27
E3
C3
F1
EC
F6
B9
10
3B
04
0E
11
49
14
14
26
3B
DE
DB
DB
04
EB
C1
0C
32
20
13
F4
24
C9
C0
F9
53
1D
27
E1
2A
DB
CC
EC
FE
CB
DE
0C
EC
F4
35
CC
D6
F6
0E
F9
31
E4
07
EA
07
D7
CF
0B
F4
AA
21
09
27
E6
35
08
08
32
EE
1D
17
FD
EC
2F
FE
23
06
29
05
EC
02
D7
D5
FA
F4
9D
E9
05
EF
D2
02
D3
16
D9
D3
B7
25
29
22
54
05
13
29
CB
D1
FB
05
EB
2E
B7
DD
0E
EA
FB
FA
10
FD
FA
27
16
ED
29
F6
DE
0C
D5
2E
F9
D9
C7
D5
18
29
04
19
1C
F0
F1
13
F3
30
0C
F1
16
CA
F1
03
40
1E
23
E7
23
F4
10
1A
C7
21
08
C0
EB
FD
FE
4C
EC
83
E3
F5
04
E9
F3
0D
20
29
EC
2F
01
ED
DF
BC
05
02
E8
E7
13
E3
0E
F9
22
FC
C6
0C
0D
36
CE
01
0D
1A
EA
F7
0C
09
35
06
FB
14
35
0C
22
28
2A
21
1D
F9
ED
48
21
58
E1
F3
E4
FA
E8
18
16
E6
F1
E7
CC
2B
15
17
23
03
23
04
15
ED
C4
01
E0
04
18
07
F8
E9
2A
10
D8
1A
1C
D0
FB
24
2A
22
F8
1A
22
FE
FC
EA
EC
F9
13
2B
11
E5
FF
CB
EA
1E
DF
0E
14
14
10
1D
FB
F6
E3
27
1C
01
A7
1B
FB
14
E0
0C
12
E0
E1
CF
1E
F4
E7
17
14
49
D6
00
2C
28
19
37
10
4A
38
08
FB
EC
01
F0
EE
38
20
1E
34
1F
2B
21
16
2E
EB
01
FF
F4
05
B4
CE
F6
0F
D8
36
A6
DD
2D
20
0A
14
04
DE
2B
D8
F1
F7
F1
1D
FB
21
08
E8
0B
F5
18
1B
F0
40
DA
2D
F1
E2
EB
05
E6
F6
E0
E2
19
E0
FB
1E
DB
05
C0
1E
30
F3
02
E6
DC
F7
03
E8
0D
1E
F0
1D
EF
27
30
18
35
0A
EB
05
2C
33
28
ED
FB
F8
15
EE
E5
ED
04
F8
FF
02
24
06
15
FD
E0
2A
1C
F6
E1
17
EB
0F
20
F4
2F
FF
CE
FA
F6
00
06
18
D2
07
1A
E0
FA
17
EE
23
00
01
16
18
EF
EB
E9
22
F4
25
0D
1D
EF
0F
F4
21
E4
1B
10
10
07
E9
EA
32
E5
18
37
0A
D1
EC
F2
15
19
0F
0B
F9
F9
00
09
F5
B9
F6
EC
FB
D9
14
1E
0D
FB
31
1D
DE
D2
03
22
2A
D0
1F
E1
22
DC
0C
24
12
2E
22
24
F9
CE
0B
F8
11
0F
E8
2B
17
0D
3A
35
06
15
FA
F0
E5
0C
01
DB
0A
18
28
DA
D8
EE
18
17
DB
E0
EF
0D
02
00
0E
11
AA
04
E4
F2
F4
09
0E
CA
E7
27
12
F0
F5
10
2E
E9
10
1E
D4
ED
18
12
0C
0C
01
03
E1
10
1A
F8
0C
10
ED
24
2F
14
